/**
  ******************************************************************************
  * @file    network_ecblobs.h
  * @brief   NN Code autogenerated DO NOT MODIFY IT
  ******************************************************************************
  * @attention
  *
  * Copyright (c) 2024 STMicroelectronics.
  * All rights reserved.
  *
  * This software is licensed under terms that can be found in the LICENSE file
  * in the root directory of this software component.
  * If no LICENSE file comes with this software, it is provided AS-IS.
  *
  ******************************************************************************
  */


#ifdef __cplusplus
extern "C" {
#endif

#include "ll_aton_caches_interface.h"

#include <string.h>

#if !defined(ECBLOB_CONST_SECTION)
#define ECBLOB_CONST_SECTION /* Empty */
#endif
#if !defined(ECBLOB_RUNTIME_SECTION)
#define ECBLOB_RUNTIME_SECTION /* Empty */
#endif

ECBLOB_CONST_SECTION
// aligned to the cache line size (equal to 64 bytes)
__attribute__((aligned(64)))
static const uint64_t _ec_blob_network_1[21720] =
{
  0x0000a9a0ca057a7aUL, 0x0000005d0000003dUL, 0x5c00004200802241UL, 0x1500006008000000UL,
  0x000700005c027c00UL, 0x000040005c070043UL, 0x5c0c00430000ffe0UL, 0x1041204200000000UL,
  0x6000004200802261UL, 0x1500000008000000UL, 0x0007000060027c00UL, 0x0000400060070043UL,
  0x600c004300000020UL, 0x1041104100000000UL, 0x30007c00008020e1UL, 0x3002004300080104UL,
  0x000a8c0034200000UL, 0x00000000300500c3UL, 0x00000000000a8c00UL, 0x0000002400000000UL,
  0x300c004200100000UL, 0x0000000700000006UL, 0x00000001300d0043UL, 0x30110043342a8c3fUL,
  0x0000000000000000UL, 0x14007c0000802001UL, 0x140200430008010cUL, 0x000a8c00342a8c00UL,
  0x00000000140500c3UL, 0x00000000000a8c00UL, 0x0000002400000000UL, 0x140c004200100000UL,
  0x0000000700000006UL, 0x00000001140d0043UL, 0x141100433435183fUL, 0x0000000000000000UL,
  0x0000000210007c00UL, 0x0000006410000424UL, 0x10007c0000000000UL, 0x10007bc440000000UL,
  0x0000000000000064UL, 0x0000000110007c00UL, 0x0000002710027c00UL, 0x0000000f101e7c00UL,
  0x0000002510207c00UL, 0x5c00200114002001UL, 0x3000200160002001UL, 0x0000006414007fe4UL,
  0x10027c0000000000UL, 0x101e7c0000000000UL, 0x10207c0000000000UL, 0x14007c0000000000UL,
  0x1400042400000002UL, 0x0000000000000064UL, 0x4000000014007c00UL, 0x0000006414007bc4UL,
  0x0080000100000000UL, 0x080000025c007c00UL, 0x000000645c000424UL, 0x5c007c0000000000UL,
  0x5c007bc448000000UL, 0x0000000000000064UL, 0x60007c0000800241UL, 0x6000042408000002UL,
  0x0000000000000064UL, 0x4800000060007c00UL, 0x0000006460007bc4UL, 0x0080026100000000UL,
  0x0000000230007c00UL, 0x0000006430000424UL, 0x30007c0000000000UL, 0x30007bc440000000UL,
  0x0000000000000064UL, 0x0000007d008000e1UL, 0x3c007c0000802141UL, 0x3c0200e300100034UL,
  0x0000224406030303UL, 0x01e005a010634303UL, 0x01df0000059f0000UL, 0x3c0a7c0000000001UL,
  0x3c0d7c0000000000UL, 0x0080228100000000UL, 0x0800000064000042UL, 0x64020123156000fcUL,
  0x00000000000a0000UL, 0x000545ff00000005UL, 0x00000000000a8bffUL, 0x07d403fb00000000UL,
  0x640c004300000001UL, 0x2042204200000000UL, 0x00000001640b7c00UL, 0xfee9316f65000303UL,
  0xfb4d7e040000b889UL, 0xf93531b700002f44UL, 0xf9925c620000f65eUL, 0xf5163c2e00007417UL,
  0xfb09568d0000bfc8UL, 0xf1461481000046f1UL, 0xf5bb450600000414UL, 0xfa32393900009948UL,
  0xf78d18330000d97bUL, 0xf99836f00000fb8bUL, 0xf17d260300002bbaUL, 0x008022a10000eee6UL,
  0x0800000068000042UL, 0x68027c0015000000UL, 0x6807004300070000UL, 0x0000002000004000UL,
  0x00000000680c0043UL, 0x0080206110411041UL, 0x0008010020007c00UL, 0x342a8c0020020043UL,
  0x200500c3000a8c00UL, 0x000a8c0000000000UL, 0x0000000000000001UL, 0x0010000000000024UL,
  0x00000006200c0042UL, 0x200d004300000007UL, 0x3435183f00000002UL, 0x0000000020110043UL,
  0x008020c100000000UL, 0x000801842c007c00UL, 0x704a46702c020043UL, 0x2c0500c300000144UL,
  0x0000000000000000UL, 0x0000000000000000UL, 0x0010000000000024UL, 0x000000062c0c0042UL,
  0x2c0d004300000007UL, 0x704a47f700000001UL, 0x000000002c110043UL, 0x008020a100000008UL,
  0x0008010828007c00UL, 0x3420000028020043UL, 0x280500c300054600UL, 0x0005460000000000UL,
  0x0000000000000000UL, 0x0010000000000024UL, 0x00000006280c0042UL, 0x280d004300000007UL,
  0x342a8c3f00000002UL, 0x0000000028110043UL, 0x10007c0000000000UL, 0x1000042400000002UL,
  0x0000000000000064UL, 0x4000000010007c00UL, 0x0000006410007bc4UL, 0x10007c0000000000UL,
  0x10077c0000000001UL, 0x100c00430000002bUL, 0x0000000d00000007UL, 0x0000001510227c00UL,
  0x0000002910247c00UL, 0x3c007c0028002001UL, 0x6400200100100035UL, 0x2000200168002001UL,
  0x28007fe42c002001UL, 0x0000000000000064UL, 0x0000000010077c00UL, 0x00000000100c0043UL,
  0x10227c0000000000UL, 0x10247c0000000000UL, 0x28007c0000000000UL, 0x2800042400000002UL,
  0x0000000000000064UL, 0x4000000028007c00UL, 0x0000006428007bc4UL, 0x008000a100000000UL,
  0x000000023c007c00UL, 0x000000643c000424UL, 0x3c007c0000000000UL, 0x3c007bc440000000UL,
  0x0000000000000064UL, 0x64007c0000800141UL, 0x6400042408000002UL, 0x0000000000000064UL,
  0x4800000064007c00UL, 0x0000006464007bc4UL, 0x0080028100000000UL, 0x0800000268007c00UL,
  0x0000006468000424UL, 0x68007c0000000000UL, 0x68007bc448000000UL, 0x0000000000000064UL,
  0x20007c00008002a1UL, 0x2000042400000002UL, 0x0000000000000064UL, 0x4000000020007c00UL,
  0x0000006420007bc4UL, 0x0080006100000000UL, 0x000000022c007c00UL, 0x000000642c000424UL,
  0x2c007c0000000000UL, 0x2c007bc440000000UL, 0x0000000000000064UL, 0x0000009d008000c1UL,
  0x40007c0000802161UL, 0x400200e300100034UL, 0x0000115508060303UL, 0x00f005a010774004UL,
  0x00ef0000059f0000UL, 0x400a7c0000070010UL, 0x400d7c0000000000UL, 0x0080218100000000UL,
  0x0010002044007c00UL, 0x08060303440200e3UL, 0x1063440000001155UL, 0x059f000000f005a0UL,
  0x000f081000ef0000UL, 0x00000000440a7c00UL, 0x00000000440d7c00UL, 0x5c00004200802241UL,
  0x156000fc08000000UL, 0x000980005c020123UL, 0x0000000700000000UL, 0x000e0fff000707ffUL,
  0x0000000000000000UL, 0x0000000107c403f9UL, 0x000000005c0c0043UL, 0x5c0b7c0020422042UL,
  0x5d00040300000001UL, 0x0000b3e5fd962bbfUL, 0x0000ad39fd6c4371UL, 0x00004151fcd42b01UL,
  0x0000fe07fcab65a4UL, 0x0000f561fd1735deUL, 0x0000c88ffc772f62UL, 0x0000c83afcdb2870UL,
  0x00001129fbeb26ecUL, 0x0000afa3fdd46fa3UL, 0x00005441fc60499dUL, 0x0000433cfd13196dUL,
  0x00009584fcde27ffUL, 0x00009fcdfd3a15baUL, 0x000093abfd131c66UL, 0x0000476cfbbb2db6UL,
  0x0000fddbfd481642UL, 0x6000004200802261UL, 0x1500000008000000UL, 0x0007000060027c00UL,
  0x0000400060070043UL, 0x600c004300000020UL, 0x1041104100000000UL, 0x20007c0000802061UL,
  0x2002004300080100UL, 0x0005460034200000UL, 0x00000000200500c3UL, 0x00000001000a8c00UL,
  0x0000002400000000UL, 0x200c004200100000UL, 0x0000000700000006UL, 0x00000002200d0043UL,
  0x20110043342a8c3fUL, 0x0000000000000000UL, 0x28007c00008020a1UL, 0x2802004300080184UL,
  0x000006c070497580UL, 0x00000000280500c3UL, 0x0000000000000000UL, 0x0000002400000000UL,
  0x280c004200100000UL, 0x0000000700000006UL, 0x00000001280d0043UL, 0x2811004370497c7fUL,
  0x0000000800000000UL, 0x18007c0000802021UL, 0x1802004300080100UL, 0x0005460034254600UL,
  0x00000000180500c3UL, 0x00000001000a8c00UL, 0x0000002400000000UL, 0x180c004200100000UL,
  0x0000000700000006UL, 0x00000002180d0043UL, 0x18110043342a8c3fUL, 0x0000000000000000UL,
  0x38007c0000802121UL, 0x3802012300080008UL, 0x00f000f090000000UL, 0x00000f0000100008UL,
  0x0000000200000008UL, 0x00000024000e1000UL, 0x380c004200100000UL, 0x0000000700000006UL,
  0x00000002380d0043UL, 0x38110043900e103fUL, 0x0000000800000000UL, 0x0000000210007c00UL,
  0x0000006410000424UL, 0x10007c0000000000UL, 0x10007bc440000000UL, 0x0000000000000064UL,
  0x0000000110007c00UL, 0x00000027100b7c00UL, 0x00000007100f0043UL, 0x101200630000000bUL,
  0x0000000b00000003UL, 0x101e7c0000000017UL, 0x10207c0000000019UL, 0x3800200100000025UL,
  0x0010003540007c00UL, 0x0010002144007c00UL, 0x600020015c002001UL, 0x2000200118002001UL,
  0x38007fe428002001UL, 0x0000000000000064UL, 0x00000000100b7c00UL, 0x00000000100f0043UL,
  0x1012006300000000UL, 0x0000000000000000UL, 0x101e7c0000000000UL, 0x10207c0000000000UL,
  0x38007c0000000000UL, 0x3800042400000002UL, 0x0000000000000064UL, 0x4000000038007c00UL,
  0x0000006438007bc4UL, 0x0080012100000000UL, 0x0000000240007c00UL, 0x0000006440000424UL,
  0x40007c0000000000UL, 0x40007bc440000000UL, 0x0000000000000064UL, 0x44007c0000800161UL,
  0x4400042400000002UL, 0x0000000000000064UL, 0x4000000044007c00UL, 0x0000006444007bc4UL,
  0x0080018100000000UL, 0x080000025c007c00UL, 0x000000645c000424UL, 0x5c007c0000000000UL,
  0x5c007bc448000000UL, 0x0000000000000064UL, 0x60007c0000800241UL, 0x6000042408000002UL,
  0x0000000000000064UL, 0x4800000060007c00UL, 0x0000006460007bc4UL, 0x0080026100000000UL,
  0x0000000218007c00UL, 0x0000006418000424UL, 0x18007c0000000000UL, 0x18007bc440000000UL,
  0x0000000000000064UL, 0x20007c0000800021UL, 0x2000042400000002UL, 0x0000000000000064UL,
  0x4000000020007c00UL, 0x0000006420007bc4UL, 0x0080006100000000UL, 0x0000000228007c00UL,
  0x0000006428000424UL, 0x28007c0000000000UL, 0x28007bc440000000UL, 0x0000000000000064UL,
  0x000000bd008000a1UL, 0x48007c00008021a1UL, 0x480200e320100034UL, 0x0000220004040303UL,
  0x00f003c010634101UL, 0x00ef000003bf0000UL, 0x480a7c0000000001UL, 0x480d7c0001000400UL,
  0x0080228100000000UL, 0x0800000064000042UL, 0x64020123156000fcUL, 0x0000000000098000UL,
  0x0000e0ff00000003UL, 0x00000000000383ffUL, 0x07c403fd00000000UL, 0x640c004300000001UL,
  0x2042204200000000UL, 0x00000001640b7c00UL, 0xfe013f7c65000403UL, 0xfc0f14ec00001501UL,
  0xfbe32862000013f0UL, 0xfc0c2fa700005ea0UL, 0xfd2c34c70000a861UL, 0xfe3f2af90000ff32UL,
  0xfbee27590000435aUL, 0xfbe9305e0000045dUL, 0xfc15352d00003bc0UL, 0xfd252b1f00002fbcUL,
  0xfe1470480000c64aUL, 0xfbde38260000acd3UL, 0xfd0b56440000e177UL, 0xfd5612220000b990UL,
  0xfbb222fd0000249bUL, 0xff3856c50000fb36UL, 0x008022a10000a2eaUL, 0x0800000068000042UL,
  0x68027c0015000000UL, 0x6807004300070000UL, 0x0000002000004000UL, 0x00000000680c0043UL,
  0x0080210110411041UL, 0x0088020034007c00UL, 0x9000000034020123UL, 0x0010000200f000f0UL,
  0x0000000000000f00UL, 0x0000000400000001UL, 0x0010000000000024UL, 0x00000006340c0042UL,
  0x340d004300000007UL, 0x900e103f00000004UL, 0x0000000034110043UL, 0x0080200100000008UL,
  0x0008018414007c00UL, 0x704a375014020043UL, 0x140500c300000240UL, 0x0000000000000000UL,
  0x0000000000000000UL, 0x0010000000000024UL, 0x00000006140c0042UL, 0x140d004300000007UL,
  0x704a39cf00000001UL, 0x0000000014110043UL, 0x0080206100000008UL, 0x0008000820007c00UL,
  0x342e000020020123UL, 0x0010000400780078UL, 0x0000000400000780UL, 0x0003840000000004UL,
  0x0010000000000024UL, 0x00000006200c0042UL, 0x200d004300000007UL, 0x3431843f00000004UL,
  0x0000000020110043UL, 0x10007c0000000000UL, 0x1000042400000002UL, 0x0000000000000064UL,
  0x4000000010007c00UL, 0x0000006410007bc4UL, 0x10007c0000000000UL, 0x10057c0000000001UL,
  0x101500430000002bUL, 0x0000000100000011UL, 0x0000001b10227c00UL, 0x0000002910247c00UL,
  0x48007c0020002001UL, 0x6400200120100035UL, 0x1400200168002001UL, 0x20007fe434002001UL,
  0x0000000000000064UL, 0x0000000010057c00UL, 0x0000000010150043UL, 0x10227c0000000000UL,
  0x10247c0000000000UL, 0x20007c0000000000UL, 0x2000042400000002UL, 0x0000000000000064UL,
  0x4000000020007c00UL, 0x0000006420007bc4UL, 0x0080006100000000UL, 0x0000000248007c00UL,
  0x0000006448000424UL, 0x48007c0000000000UL, 0x48007bc440000000UL, 0x0000000000000064UL,
  0x64007c00008001a1UL, 0x6400042408000002UL, 0x0000000000000064UL, 0x4800000064007c00UL,
  0x0000006464007bc4UL, 0x0080028100000000UL, 0x0800000268007c00UL, 0x0000006468000424UL,
  0x68007c0000000000UL, 0x68007bc448000000UL, 0x0000000000000064UL, 0x14007c00008002a1UL,
  0x1400042400000002UL, 0x0000000000000064UL, 0x4000000014007c00UL, 0x0000006414007bc4UL,
  0x0080000100000000UL, 0x0000000234007c00UL, 0x0000006434000424UL, 0x34007c0000000000UL,
  0x34007bc440000000UL, 0x0000000000000064UL, 0x000000dd00800101UL, 0x3c007c0000802141UL,
  0x3c0200e300100034UL, 0x0000110010100101UL, 0x0078078010634303UL, 0x00770000077f0000UL,
  0x3c0a7c0000000001UL, 0x3c0d7c0000000000UL, 0x0080224100000000UL, 0x080000005c000042UL,
  0x5c020123156000fcUL, 0x0000000000088000UL, 0x000383ff0000000fUL, 0x00000000000707ffUL,
  0x078403f100000000UL, 0x5c0c004300000001UL, 0x2042204200000000UL, 0x000000015c0b7c00UL,
  0xff2e344a5d000803UL, 0xfefa1aa2000070feUL, 0xff4318600000d9bdUL, 0xffb71755000099e2UL,
  0xffef285b000021c3UL, 0xff7615ad00001e0eUL, 0xfe851fc900009d90UL, 0xff801aba00009b4bUL,
  0xff1f20dd00003d7eUL, 0xfebf20900000a06eUL, 0x00b51e980000cbf8UL, 0xfde91e0b00006a28UL,
  0xfe5f31580000835cUL, 0xfdfd3ecf0000a2a0UL, 0xffe4221800006fb8UL, 0xfe4225f00000b467UL,
  0xfe0a1797000039c6UL, 0xfe8f11b50000f3adUL, 0xff991f2900002f66UL, 0xffbb2a3d0000ca43UL,
  0xff76205400007c92UL, 0xfe751efb0000fd13UL, 0xfe7424a60000c2c0UL, 0xfe4321c000003217UL,
  0xffec1bba0000f8acUL, 0xfe5525ee00008e89UL, 0xffcf28cf00007898UL, 0x00792e2400000e08UL,
  0x010942e80000bcffUL, 0xffc3257700006e00UL, 0xfea0204f0000e57cUL, 0x0011293100003195UL,
  0x0080226100001a88UL, 0x0800000060000042UL, 0x60027c0015000000UL, 0x6007004300070000UL,
  0x0000002000004000UL, 0x00000000600c0043UL, 0x0080210110411041UL, 0x0008010034007c00UL,
  0x342e000034020043UL, 0x340500c300038400UL, 0x0003840000000000UL, 0x0000000000000001UL,
  0x0010000000000024UL, 0x00000006340c0042UL, 0x340d004300000007UL, 0x3431843f00000002UL,
  0x0000000034110043UL, 0x0080208100000000UL, 0x0008018424007c00UL, 0x704a447024020043UL,
  0x240500c300000200UL, 0x0000000000000000UL, 0x0000000000000000UL, 0x0010000000000024UL,
  0x00000006240c0042UL, 0x240d004300000007UL, 0x704a46af00000001UL, 0x0000000024110043UL,
  0x0080206100000008UL, 0x0008010820007c00UL, 0x3431840020020043UL, 0x200500c300038400UL,
  0x0003840000000000UL, 0x0000000000000000UL, 0x0010000000000024UL, 0x00000006200c0042UL,
  0x200d004300000007UL, 0x34388c3f00000002UL, 0x0000000020110043UL, 0x008020e100000000UL,
  0x0008000830007c00UL, 0x3420000030020123UL, 0x0020001000780078UL, 0x0000001000000f00UL,
  0x0007080000000002UL, 0x0010000000000024UL, 0x00000006300c0042UL, 0x300d004300000007UL,
  0x3427083f00000002UL, 0x0000000030110043UL, 0x10007c0000000000UL, 0x1000042400000002UL,
  0x0000000000000064UL, 0x4000000010007c00UL, 0x0000006410007bc4UL, 0x10007c0000000000UL,
  0x10057c0000000001UL, 0x10097c0000000025UL, 0x100c004300000027UL, 0x0000000900000011UL,
  0x00000015101e7c00UL, 0x0000002510207c00UL, 0x3000200120002001UL, 0x001000353c007c00UL,
  0x600020015c002001UL, 0x3400200124002001UL, 0x0000006420007fe4UL, 0x30007fe400000000UL,
  0x0000000000000064UL, 0x0000000010057c00UL, 0x0000000010097c00UL, 0x00000000100c0043UL,
  0x101e7c0000000000UL, 0x10207c0000000000UL, 0x20007c0000000000UL, 0x2000042400000002UL,
  0x0000000000000064UL, 0x4000000020007c00UL, 0x0000006420007bc4UL, 0x0080006100000000UL,
  0x0000000230007c00UL, 0x0000006430000424UL, 0x30007c0000000000UL, 0x30007bc440000000UL,
  0x0000000000000064UL, 0x3c007c00008000e1UL, 0x3c00042400000002UL, 0x0000000000000064UL,
  0x400000003c007c00UL, 0x000000643c007bc4UL, 0x0080014100000000UL, 0x080000025c007c00UL,
  0x000000645c000424UL, 0x5c007c0000000000UL, 0x5c007bc448000000UL, 0x0000000000000064UL,
  0x60007c0000800241UL, 0x6000042408000002UL, 0x0000000000000064UL, 0x4800000060007c00UL,
  0x0000006460007bc4UL, 0x0080026100000000UL, 0x0000000224007c00UL, 0x0000006424000424UL,
  0x24007c0000000000UL, 0x24007bc440000000UL, 0x0000000000000064UL, 0x34007c0000800081UL,
  0x3400042400000002UL, 0x0000000000000064UL, 0x4000000034007c00UL, 0x0000006434007bc4UL,
  0x0080010100000000UL, 0x00802161000000fdUL, 0x10d0003440007c00UL, 0x10200101400200e3UL,
  0x10e3420200001100UL, 0x0eff000000780f00UL, 0x0000000100770000UL, 0x00000000400a7c00UL,
  0x00000000400d7c00UL, 0x6400004200802281UL, 0x356000fc08000000UL, 0x000a800064020123UL,
  0x0000000f00000000UL, 0x000383ff000383ffUL, 0x0000000000000000UL, 0x0000000107c403f1UL,
  0x00000000640c0063UL, 0xff80ffd220422042UL, 0x00000001640b7c00UL, 0xf1c4333b65000403UL,
  0xf2de3e21000082f6UL, 0xefdc3396000095a1UL, 0xf10a4e440000e2eaUL, 0xf15236c100005d1fUL,
  0xf0b435dc0000bf63UL, 0xef243fdd0000ba5dUL, 0xf05638010000c829UL, 0xf06f47dd0000bd4eUL,
  0xec4d5d0a0000963cUL, 0xf3ae45c50000b91bUL, 0xf14f2b6100000b2cUL, 0xf0e441380000ab74UL,
  0xf0b3363b0000e86eUL, 0xf10d39bb0000f38cUL, 0xf154268e0000e2d7UL, 0x008022a100007e3cUL,
  0x0800000068000042UL, 0x68027c0015000000UL, 0x6807004300070000UL, 0x0000002000004000UL,
  0x00000000680c0043UL, 0x008020a110411041UL, 0x0888030428007c00UL, 0x3420000028020043UL,
  0x280500c300025800UL, 0x0000000000000000UL, 0x0007080000000001UL, 0x0010000000000024UL,
  0x00000006280c0042UL, 0x280d004300000007UL, 0x3427083f00000001UL, 0x0000000028110043UL,
  0x008020e100000000UL, 0x0888018430007c00UL, 0x704a405030020043UL, 0x300500c3000000abUL,
  0x0000000000000000UL, 0x0000000000000000UL, 0x0010000000000024UL, 0x00000006300c0042UL,
  0x300d004300000007UL, 0x704a429700000001UL, 0x0000000030110043UL, 0x0080202100000008UL,
  0x0008010018007c00UL, 0x3431840018020043UL, 0x180500c300038400UL, 0x0003840000000000UL,
  0x0000000000000000UL, 0x0010000000000024UL, 0x00000006180c0042UL, 0x180d004300000007UL,
  0x34388c3f00000002UL, 0x0000000018110043UL, 0x0080210100000000UL, 0x0008010c34007c00UL,
  0x9003840034020043UL, 0x340500c300038400UL, 0x0003840000000000UL, 0x0000000000000000UL,
  0x0010000000000024UL, 0x00000006340c0042UL, 0x340d004300000007UL, 0x9007083f00000001UL,
  0x0000000034110043UL, 0x0080208100000008UL, 0x0008000824007c00UL, 0x9007080024020123UL,
  0x0020001000780078UL, 0x0000001000000f00UL, 0x0007080000000002UL, 0x0010000000000024UL,
  0x00000006240c0042UL, 0x240d004300000007UL, 0x900e103f00000002UL, 0x0000000024110043UL,
  0x10007c0000000008UL, 0x1000042400000002UL, 0x0000000000000064UL, 0x4000000010007c00UL,
  0x0000006410007bc4UL, 0x10007c0000000000UL, 0x10067c0000000001UL, 0x100a7c000000002bUL,
  0x100f004300000029UL, 0x0000000f0000000bUL, 0x0000001710227c00UL, 0x0000000310247c00UL,
  0x3400200124002001UL, 0x10d0003540007c00UL, 0x6800200164002001UL, 0x2800200118002001UL,
  0x24007fe430002001UL, 0x0000000000000064UL, 0x0000006434007fe4UL, 0x10067c0000000000UL,
  0x100a7c0000000000UL, 0x100f004300000000UL, 0x0000000000000000UL, 0x0000000010227c00UL,
  0x0000000010247c00UL, 0x0000000224007c00UL, 0x0000006424000424UL, 0x24007c0000000000UL,
  0x24007bc440000000UL, 0x0000000000000064UL, 0x34007c0000800081UL, 0x3400042400000002UL,
  0x0000000000000064UL, 0x4000000034007c00UL, 0x0000006434007bc4UL, 0x0080010100000000UL,
  0x0000000240007c00UL, 0x0000006440000424UL, 0x40007c0000000000UL, 0x40007bc440000000UL,
  0x0000000000000064UL, 0x64007c0000800161UL, 0x6400042408000002UL, 0x0000000000000064UL,
  0x4800000064007c00UL, 0x0000006464007bc4UL, 0x0080028100000000UL, 0x0800000268007c00UL,
  0x0000006468000424UL, 0x68007c0000000000UL, 0x68007bc448000000UL, 0x0000000000000064UL,
  0x18007c00008002a1UL, 0x1800042400000002UL, 0x0000000000000064UL, 0x4000000018007c00UL,
  0x0000006418007bc4UL, 0x0080002100000000UL, 0x0000000228007c00UL, 0x0000006428000424UL,
  0x28007c0000000000UL, 0x28007bc440000000UL, 0x0000000000000064UL, 0x30007c00008000a1UL,
  0x3000042400000002UL, 0x0000000000000064UL, 0x4000000030007c00UL, 0x0000006430007bc4UL,
  0x008000e100000000UL, 0x008021810000011dUL, 0x10d0003444007c00UL, 0x10200101440200e3UL,
  0x10e3420200001100UL, 0x0eff000000780f00UL, 0x0000000100770000UL, 0x00000000440a7c00UL,
  0x00000000440d7c00UL, 0x5c00004200802241UL, 0x156000fc08000000UL, 0x000a00005c020123UL,
  0x0000000f00000000UL, 0x000383ff000383ffUL, 0x0000000000000000UL, 0x0000000107c403f1UL,
  0x000000005c0c0043UL, 0x5c0b7c0020422042UL, 0x5d00040300000001UL, 0x00007119f8722f24UL,
  0x0000a98dfae430aeUL, 0x000090d5fc73304dUL, 0x0000e65ef89f3030UL, 0x0000a89df787665aUL,
  0x0000dd63f64b2c6dUL, 0x0000effef6902f4cUL, 0x00004e34f879122cUL, 0x0000a76cff8179efUL,
  0x0000fd67fbe52fb6UL, 0x000038bef7ad2b45UL, 0x00001db8f8ca4a21UL, 0x00000dcefccd3c6aUL,
  0x00000999faee336dUL, 0x0000c9eef8ea2cc1UL, 0x0000f0bbf8164c85UL, 0x6000004200802261UL,
  0x1500000008000000UL, 0x0007000060027c00UL, 0x0000400060070043UL, 0x600c004300000020UL,
  0x1041104100000000UL, 0x48007c00008021a1UL, 0x480200e300100034UL, 0x0000110010100101UL,
  0x0078078010634303UL, 0x00770000077f0000UL, 0x480a7c0000000001UL, 0x480d7c0000000000UL,
  0x0080228100000000UL, 0x0800000064000042UL, 0x64020123156000fcUL, 0x0000000000090000UL,
  0x000383ff0000000fUL, 0x00000000000383ffUL, 0x07c403f100000000UL, 0x640c004300000001UL,
  0x2042204200000000UL, 0x00000001640b7c00UL, 0xfe972d4e65000403UL, 0xfdda1a990000ccf8UL,
  0xfd242f880000ffa1UL, 0xfea705ac0000d8d4UL, 0xff4152e60000df9eUL, 0xfdb3159a0000d7a0UL,
  0xfdf0290b0000943eUL, 0xfef712400000ca10UL, 0xffe932a20000b2a4UL, 0xfe6f23d100008fb6UL,
  0xfe422fab00008f5bUL, 0xfda327c70000de15UL, 0xfe452c1a000060c7UL, 0xfeae074100007ce7UL,
  0xfd6627c700002dbdUL, 0xfe1d2fdb00009b14UL, 0x008022a100002330UL, 0x0800000068000042UL,
  0x68027c0015000000UL, 0x6807004300070000UL, 0x0000002000004000UL, 0x00000000680c0043UL,
  0x0080200110411041UL, 0x0888030414007c00UL, 0x9007080014020043UL, 0x140500c300025800UL,
  0x0000000000000000UL, 0x0007080000000001UL, 0x0010000000000024UL, 0x00000006140c0042UL,
  0x140d004300000007UL, 0x900e103f00000001UL, 0x0000000014110043UL, 0x0080204100000008UL,
  0x088801841c007c00UL, 0x704a42601c020043UL, 0x1c0500c3000000abUL, 0x0000000000000000UL,
  0x0000000000000000UL, 0x0010000000000024UL, 0x000000061c0c0042UL, 0x1c0d004300000007UL,
  0x704a44a700000001UL, 0x000000001c110043UL, 0x008020a100000008UL, 0x0008018428007c00UL,
  0x704a47c028020043UL, 0x280500c300000100UL, 0x0000000000000000UL, 0x0000000000000000UL,
  0x0010000000000024UL, 0x00000006280c0042UL, 0x280d004300000007UL, 0x704a48ff00000001UL,
  0x0000000028110043UL, 0x008020e100000008UL, 0x0008010c30007c00UL, 0x342e000030020043UL,
  0x300500c300038400UL, 0x0003840000000000UL, 0x0000000000000000UL, 0x0010000000000024UL,
  0x00000006300c0042UL, 0x300d004300000007UL, 0x3431843f00000001UL, 0x0000000030110043UL,
  0x008020c100000000UL, 0x000800082c007c00UL, 0x342700002c020123UL, 0xe100000400780004UL,
  0x000001e000000004UL, 0x0003840000000078UL, 0x0010000000000024UL, 0x000000062c0c0042UL,
  0x2c0d004300000007UL, 0x342a843f00000078UL, 0x000000002c110043UL, 0x10007c0000000000UL,
  0x1000042400000002UL, 0x0000000000000064UL, 0x4000000010007c00UL, 0x0000006410007bc4UL,
  0x10007c0000000000UL, 0x1008004300000001UL, 0x000000250000002bUL, 0x0000000110120043UL,
  0x1015004300000005UL, 0x0000000bff260127UL, 0x00000019101e7c00UL, 0x0000002510207c00UL,
  0x0000001b10227c00UL, 0x0000002910247c00UL, 0x300020012c002001UL, 0x10d0003544007c00UL,
  0x0010003548007c00UL, 0x600020015c002001UL, 0x6800200164002001UL, 0x1c00200114002001UL,
  0x2c007fe428002001UL, 0x0000000000000064UL, 0x0000006430007fe4UL, 0x1008004300000000UL,
  0x0000000000000000UL, 0x0000000010120043UL, 0x1015004300000000UL, 0x0000000000000000UL,
  0x00000000101e7c00UL, 0x0000000010207c00UL, 0x0000000010227c00UL, 0x0000000010247c00UL,
  0x000000022c007c00UL, 0x000000642c000424UL, 0x2c007c0000000000UL, 0x2c007bc440000000UL,
  0x0000000000000064UL, 0x30007c00008000c1UL, 0x3000042400000002UL, 0x0000000000000064UL,
  0x4000000030007c00UL, 0x0000006430007bc4UL, 0x008000e100000000UL, 0x0000000244007c00UL,
  0x0000006444000424UL, 0x44007c0000000000UL, 0x44007bc440000000UL, 0x0000000000000064UL,
  0x48007c0000800181UL, 0x4800042400000002UL, 0x0000000000000064UL, 0x4000000048007c00UL,
  0x0000006448007bc4UL, 0x008001a100000000UL, 0x080000025c007c00UL, 0x000000645c000424UL,
  0x5c007c0000000000UL, 0x5c007bc448000000UL, 0x0000000000000064UL, 0x60007c0000800241UL,
  0x6000042408000002UL, 0x0000000000000064UL, 0x4800000060007c00UL, 0x0000006460007bc4UL,
  0x0080026100000000UL, 0x0800000264007c00UL, 0x0000006464000424UL, 0x64007c0000000000UL,
  0x64007bc448000000UL, 0x0000000000000064UL, 0x68007c0000800281UL, 0x6800042408000002UL,
  0x0000000000000064UL, 0x4800000068007c00UL, 0x0000006468007bc4UL, 0x008002a100000000UL,
  0x0000000214007c00UL, 0x0000006414000424UL, 0x14007c0000000000UL, 0x14007bc440000000UL,
  0x0000000000000064UL, 0x1c007c0000800001UL, 0x1c00042400000002UL, 0x0000000000000064UL,
  0x400000001c007c00UL, 0x000000641c007bc4UL, 0x0080004100000000UL, 0x0000000228007c00UL,
  0x0000006428000424UL, 0x28007c0000000000UL, 0x28007bc440000000UL, 0x0000000000000064UL,
  0x0000013d008000a1UL, 0x3c007c0000802141UL, 0x3c0200e300100034UL, 0x0000115504040303UL,
  0x007801e010634202UL, 0x0077000001df0000UL, 0x3c0a7c0000000001UL, 0x3c0d7c0000000000UL,
  0x0080224100000000UL, 0x080000005c000042UL, 0x5c020123156000fcUL, 0x0000000000090000UL,
  0x0000e0ff00000003UL, 0x00000000000383ffUL, 0x07c403fd00000000UL, 0x5c0c004300000001UL,
  0x2042204200000000UL, 0x000000015c0b7c00UL, 0xfdfd1f9c5d000403UL, 0xfde015ef000040b2UL,
  0xfdea103c0000ebfaUL, 0xf8de40a10000e224UL, 0xfed810cf0000d2caUL, 0xff6859620000aa7fUL,
  0xfec015be000067ddUL, 0xfea83a390000157eUL, 0xfdd5166600005bfcUL, 0xfe116f170000a6f6UL,
  0xfdff2bca0000cab1UL, 0xfe4f2f320000ea1bUL, 0xfe080d840000bb3dUL, 0xff1b2b050000107eUL,
  0xfdfe1ed600009b39UL, 0xfee30a3500003932UL, 0x0080226100004e4eUL, 0x0800000060000042UL,
  0x60027c0015000000UL, 0x6007004300070000UL, 0x0000002000004000UL, 0x00000000600c0043UL,
  0x008020c110411041UL, 0x000801002c007c00UL, 0x342700002c020043UL, 0x2c0500c30000e100UL,
  0x0000000000000000UL, 0x0000e10000000001UL, 0x0010000000000024UL, 0x000000062c0c0042UL,
  0x2c0d004300000007UL, 0x342a843f00000004UL, 0x000000002c110043UL, 0x0080204100000000UL,
  0x000801841c007c00UL, 0x704a39901c020043UL, 0x1c0500c300000240UL, 0x0000000000000000UL,
  0x0000000000000000UL, 0x0010000000000024UL, 0x000000061c0c0042UL, 0x1c0d004300000007UL,
  0x704a3c0f00000001UL, 0x000000001c110043UL, 0x0080208100000008UL, 0x0008000824007c00UL,
  0x3435000024020123UL, 0x0010000400780078UL, 0x0000000400000780UL, 0x0003840000000004UL,
  0x0010000000000024UL, 0x00000006240c0042UL, 0x240d004300000007UL, 0x3438843f00000004UL,
  0x0000000024110043UL, 0x10007c0000000000UL, 0x1000042400000002UL, 0x0000000000000064UL,
  0x4000000010007c00UL, 0x0000006410007bc4UL, 0x10007c0000000000UL, 0x10067c0000000001UL,
  0x100c004300000027UL, 0x000000050000000dUL, 0x00000015101e7c00UL, 0x0000002510207c00UL,
  0x3c007c0024002001UL, 0x5c00200100100035UL, 0x1c00200160002001UL, 0x24007fe42c002001UL,
  0x0000000000000064UL, 0x0000000010067c00UL, 0x00000000100c0043UL, 0x101e7c0000000000UL,
  0x10207c0000000000UL, 0x24007c0000000000UL, 0x2400042400000002UL, 0x0000000000000064UL,
  0x4000000024007c00UL, 0x0000006424007bc4UL, 0x0080008100000000UL, 0x000000023c007c00UL,
  0x000000643c000424UL, 0x3c007c0000000000UL, 0x3c007bc440000000UL, 0x0000000000000064UL,
  0x5c007c0000800141UL, 0x5c00042408000002UL, 0x0000000000000064UL, 0x480000005c007c00UL,
  0x000000645c007bc4UL, 0x0080024100000000UL, 0x0800000260007c00UL, 0x0000006460000424UL,
  0x60007c0000000000UL, 0x60007bc448000000UL, 0x0000000000000064UL, 0x1c007c0000800261UL,
  0x1c00042400000002UL, 0x0000000000000064UL, 0x400000001c007c00UL, 0x000000641c007bc4UL,
  0x0080004100000000UL, 0x000000022c007c00UL, 0x000000642c000424UL, 0x2c007c0000000000UL,
  0x2c007bc440000000UL, 0x0000000000000064UL, 0x0000015d008000c1UL, 0x40007c0000802161UL,
  0x400200e300100034UL, 0x0000110010100101UL, 0x0078078010634202UL, 0x00770000077f0000UL,
  0x400a7c0000000001UL, 0x400d7c0000000000UL, 0x0080228100000000UL, 0x0800000064000042UL,
  0x64020123156000fcUL, 0x00000000000a0000UL, 0x000383ff0000000fUL, 0x00000000000383ffUL,
  0x07c403f100000000UL, 0x640c004300000001UL, 0x2042204200000000UL, 0x00000001640b7c00UL,
  0xf7866a5365000403UL, 0xf88823650000ee9fUL, 0xf6f82b4400005be7UL, 0xf5803ff500006c8fUL,
  0xf4e3389700008dfcUL, 0xf881787900005dc8UL, 0xfa5729d700000fa4UL, 0xfbc1373000004e47UL,
  0xf7e7299d00008380UL, 0xf76733b8000016f9UL, 0xf9552d860000b83aUL, 0xf88f21150000c4d8UL,
  0xf9883f640000e33aUL, 0xf62c1c430000d7ddUL, 0xf76f69910000a424UL, 0xf8474a7c000041c6UL,
  0x008022a1000010ceUL, 0x0800000068000042UL, 0x68027c0005000160UL, 0x6807004300079400UL,
  0x00004ad156874ad1UL, 0x00000000680c0043UL, 0x0080224110411041UL, 0x080000005c000042UL,
  0x5c027c0015000000UL, 0x5c07004300070000UL, 0x0000002000004000UL, 0x000000005c0c0043UL,
  0x0080218110411041UL, 0x0010003444007c00UL, 0x10100101440200e3UL, 0x1063430300001100UL,
  0x077f000000780780UL, 0x0000000100770000UL, 0x00000000440a7c00UL, 0x00000000440d7c00UL,
  0x6000004200802261UL, 0x156000fc08000000UL, 0x0009000060020123UL, 0x0000000f00000000UL,
  0x000383ff000383ffUL, 0x0000000000000000UL, 0x0000000107c403f1UL, 0x00000000600c0043UL,
  0x600b7c0020422042UL, 0x6100040300000001UL, 0x0000dae8fe351589UL, 0x0000ceb6fe543171UL,
  0x000004c5feee1f7dUL, 0x0000c100fe0550b6UL, 0x0000c724fe1b1a73UL, 0x0000ce41ff0328d4UL,
  0x00004850fea3628eUL, 0x00004a9afe4e17a4UL, 0x000043cffeb00b03UL, 0x0000a65eff081fb4UL,
  0x00006945fec40ac0UL, 0x00006389fe5432c9UL, 0x0000e951fe08416aUL, 0x0000a8f5fe33109bUL,
  0x0000ea9bfcfd2df4UL, 0x0000e558fed01997UL, 0x14007c0000802001UL, 0x1402004300080104UL,
  0x0003840034350000UL, 0x00000000140500c3UL, 0x0000000100038400UL, 0x0000002400000000UL,
  0x140c004200100000UL, 0x0000000700000006UL, 0x00000001140d0043UL, 0x141100433438843fUL,
  0x0000000000000000UL, 0x28007c00008020a1UL, 0x2802004300080184UL, 0x00000100704a48c0UL,
  0x00000000280500c3UL, 0x0000000000000000UL, 0x0000002400000000UL, 0x280c004200100000UL,
  0x0000000700000006UL, 0x00000001280d0043UL, 0x28110043704a49ffUL, 0x0000000800000000UL,
  0x34007c0000802101UL, 0x3402004300080104UL, 0x00038400342e0000UL, 0x00000000340500c3UL,
  0x0000000000038400UL, 0x0000002400000000UL, 0x340c004200100000UL, 0x0000000700000006UL,
  0x00000001340d0043UL, 0x341100433431843fUL, 0x0000000000000000UL, 0x24007c0000802081UL,
  0x2402004300080184UL, 0x00000100704a49c0UL, 0x00000000240500c3UL, 0x0000000000000000UL,
  0x0000002400000000UL, 0x240c004200100000UL, 0x0000000700000006UL, 0x00000001240d0043UL,
  0x24110043704a4affUL, 0x0000000800000000UL, 0x20007c0000802061UL, 0x200200430008010cUL,
  0x0003840034200000UL, 0x00000000200500c3UL, 0x0000000000038400UL, 0x0000002400000000UL,
  0x200c004200100000UL, 0x0000000700000006UL, 0x00000001200d0043UL, 0x201100433423843fUL,
  0x0000000000000000UL, 0x38007c0000802121UL, 0x380200430008010cUL, 0x0003840034270000UL,
  0x00000000380500c3UL, 0x0000000000038400UL, 0x0000002400000000UL, 0x380c004200100000UL,
  0x0000000700000006UL, 0x00000001380d0043UL, 0x38110043342a843fUL, 0x0000000000000000UL,
  0x0000000210007c00UL, 0x0000006410000424UL, 0x10007c0000000000UL, 0x10007bc440000000UL,
  0x0000000000000064UL, 0x0000000110007c00UL, 0x0000002b10057c00UL, 0x00000027100b7c00UL,
  0x00000001100f0043UL, 0x101200430000000bUL, 0x00000009ff240125UL, 0x0000002b101e7c00UL,
  0x0000001910207c00UL, 0x0000001710227c00UL, 0x0000001110240043UL, 0x2000200100000029UL,
  0x40007c0038002001UL, 0x44007c0000100035UL, 0x5c00200100100035UL, 0x6400200160002001UL,
  0x1400200168002001UL, 0x2800200124002001UL, 0x20007fe434002001UL, 0x0000000000000064UL,
  0x0000006438007fe4UL, 0x10057c0000000000UL, 0x100b7c0000000000UL, 0x100f004300000000UL,
  0x0000000000000000UL, 0x0000000010120043UL, 0x101e7c0000000000UL, 0x10207c0000000000UL,
  0x10227c0000000000UL, 0x1024004300000000UL, 0x0000000000000000UL, 0x0000000220007c00UL,
  0x0000006420000424UL, 0x20007c0000000000UL, 0x20007bc440000000UL, 0x0000000000000064UL,
  0x38007c0000800061UL, 0x3800042400000002UL, 0x0000000000000064UL, 0x4000000038007c00UL,
  0x0000006438007bc4UL, 0x0080012100000000UL, 0x0000000240007c00UL, 0x0000006440000424UL,
  0x40007c0000000000UL, 0x40007bc440000000UL, 0x0000000000000064UL, 0x44007c0000800161UL,
  0x4400042400000002UL, 0x0000000000000064UL, 0x4000000044007c00UL, 0x0000006444007bc4UL,
  0x0080018100000000UL, 0x080000025c007c00UL, 0x000000645c000424UL, 0x5c007c0000000000UL,
  0x5c007bc448000000UL, 0x0000000000000064UL, 0x60007c0000800241UL, 0x6000042408000002UL,
  0x0000000000000064UL, 0x4800000060007c00UL, 0x0000006460007bc4UL, 0x0080026100000000UL,
  0x0800000264007c00UL, 0x0000006464000424UL, 0x64007c0000000000UL, 0x64007bc448000000UL,
  0x0000000000000064UL, 0x68007c0000800281UL, 0x6800042408000002UL, 0x0000000000000064UL,
  0x4800000068007c00UL, 0x0000006468007bc4UL, 0x008002a100000000UL, 0x0000000214007c00UL,
  0x0000006414000424UL, 0x14007c0000000000UL, 0x14007bc440000000UL, 0x0000000000000064UL,
  0x24007c0000800001UL, 0x2400042400000002UL, 0x0000000000000064UL, 0x4000000024007c00UL,
  0x0000006424007bc4UL, 0x0080008100000000UL, 0x0000000228007c00UL, 0x0000006428000424UL,
  0x28007c0000000000UL, 0x28007bc440000000UL, 0x0000000000000064UL, 0x34007c00008000a1UL,
  0x3400042400000002UL, 0x0000000000000064UL, 0x4000000034007c00UL, 0x0000006434007bc4UL,
  0x0080010100000000UL, 0x008022410000017dUL, 0x080000005c000042UL, 0x5c027c0015000000UL,
  0x5c07004300070000UL, 0x0000002000004000UL, 0x000000005c0c0043UL, 0x0080204110411041UL,
  0x000801041c007c00UL, 0x342700001c020043UL, 0x1c0500c300038400UL, 0x0003840000000000UL,
  0x0000000000000000UL, 0x0010000000000024UL, 0x000000061c0c0042UL, 0x1c0d004300000007UL,
  0x342a843f00000001UL, 0x000000001c110043UL, 0x008020c100000000UL, 0x000800082c007c00UL,
  0x342e00002c020123UL, 0xe100000400780004UL, 0x000001e000000004UL, 0x0003840000000078UL,
  0x0010000000000024UL, 0x000000062c0c0042UL, 0x2c0d004300000007UL, 0x3431843f00000078UL,
  0x000000002c110043UL, 0x10007c0000000000UL, 0x1000042400000002UL, 0x0000000000000064UL,
  0x4000000010007c00UL, 0x0000006410007bc4UL, 0x10007c0000000000UL, 0x10087c0000000001UL,
  0x101e7c0000000025UL, 0x2c00200100000005UL, 0x1c0020015c002001UL, 0x000000642c007fe4UL,
  0x10087c0000000000UL, 0x101e7c0000000000UL, 0x2c007c0000000000UL, 0x2c00042400000002UL,
  0x0000000000000064UL, 0x400000002c007c00UL, 0x000000642c007bc4UL, 0x008000c100000000UL,
  0x080000025c007c00UL, 0x000000645c000424UL, 0x5c007c0000000000UL, 0x5c007bc448000000UL,
  0x0000000000000064UL, 0x1c007c0000800241UL, 0x1c00042400000002UL, 0x0000000000000064UL,
  0x400000001c007c00UL, 0x000000641c007bc4UL, 0x0080004100000000UL, 0x008021a10000019dUL,
  0x0010003448007c00UL, 0x04040303480200e3UL, 0x1063420200001155UL, 0x01df0000007801e0UL,
  0x0000000100770000UL, 0x00000000480a7c00UL, 0x00000000480d7c00UL, 0x6000004200802261UL,
  0x156000fc08000000UL, 0x0008000060020123UL, 0x0000000300000000UL, 0x000383ff0000e0ffUL,
  0x0000000000000000UL, 0x0000000107c403fdUL, 0x00000000600c0043UL, 0x600b7c0020422042UL,
  0x6100040300000001UL, 0x0000821cff9307abUL, 0x00007b47ff890bbaUL, 0x0000050fff090bbaUL,
  0x00009542ff8a1363UL, 0x0000e51aff7309c7UL, 0x00000506ff870d89UL, 0x0000d8dfff9d0240UL,
  0x0000086aff7f1d21UL, 0x0000e45aff892077UL, 0x000097b3ff8909adUL, 0x00006caaff7144c8UL,
  0x0000fbf2ffac0569UL, 0x0000fca0ff980464UL, 0x000090c8ff8a17adUL, 0x0000830eff800618UL,
  0x0000c867ff88165fUL, 0x6400004200802281UL, 0x1500000008000000UL, 0x0007000064027c00UL,
  0x0000400064070043UL, 0x640c004300000020UL, 0x1041104100000000UL, 0x30007c00008020e1UL,
  0x3002004300080100UL, 0x0000e100342e0000UL, 0x00000000300500c3UL, 0x0000000100000000UL,
  0x000000240000e100UL, 0x300c004200100000UL, 0x0000000700000006UL, 0x00000004300d0043UL,
  0x301100433431843fUL, 0x0000000000000000UL, 0x38007c0000802121UL, 0x3802004300080184UL,
  0x00000240704a3bd0UL, 0x00000000380500c3UL, 0x0000000000000000UL, 0x0000002400000000UL,
  0x380c004200100000UL, 0x0000000700000006UL, 0x00000001380d0043UL, 0x38110043704a3e4fUL,
  0x0000000800000000UL, 0x20007c0000802061UL, 0x2002012300080008UL, 0x0078007834350000UL,
  0x0000078000100004UL, 0x0000000400000004UL, 0x0000002400038400UL, 0x200c004200100000UL,
  0x0000000700000006UL, 0x00000004200d0043UL, 0x201100433438843fUL, 0x0000000000000000UL,
  0x0000000210007c00UL, 0x0000006410000424UL, 0x10007c0000000000UL, 0x10007bc440000000UL,
  0x0000000000000064UL, 0x0000000110007c00UL, 0x0000002910057c00UL, 0x0000000f10150043UL,
  0x10207c0000000013UL, 0x10227c000000001bUL, 0x2000200100000027UL, 0x0010003548007c00UL,
  0x6400200160002001UL, 0x3800200130002001UL, 0x0000006420007fe4UL, 0x10057c0000000000UL,
  0x1015004300000000UL, 0x0000000000000000UL, 0x0000000010207c00UL, 0x0000000010227c00UL,
  0x0000000220007c00UL, 0x0000006420000424UL, 0x20007c0000000000UL, 0x20007bc440000000UL,
  0x0000000000000064UL, 0x48007c0000800061UL, 0x4800042400000002UL, 0x0000000000000064UL,
  0x4000000048007c00UL, 0x0000006448007bc4UL, 0x008001a100000000UL, 0x0800000260007c00UL,
  0x0000006460000424UL, 0x60007c0000000000UL, 0x60007bc448000000UL, 0x0000000000000064UL,
  0x64007c0000800261UL, 0x6400042408000002UL, 0x0000000000000064UL, 0x4800000064007c00UL,
  0x0000006464007bc4UL, 0x0080028100000000UL, 0x0000000230007c00UL, 0x0000006430000424UL,
  0x30007c0000000000UL, 0x30007bc440000000UL, 0x0000000000000064UL, 0x38007c00008000e1UL,
  0x3800042400000002UL, 0x0000000000000064UL, 0x4000000038007c00UL, 0x0000006438007bc4UL,
  0x0080012100000000UL, 0x00802141000001bdUL, 0x001000343c007c00UL, 0x101001013c0200e3UL,
  0x1063430300001100UL, 0x077f000000780780UL, 0x0000000100770000UL, 0x000000003c0a7c00UL,
  0x000000003c0d7c00UL, 0x68000042008022a1UL, 0x156000fc08000000UL, 0x0009000068020123UL,
  0x0000000f00000000UL, 0x000383ff000383ffUL, 0x0000000000000000UL, 0x0000000107c403f1UL,
  0x00000000680c0043UL, 0x680b7c0020422042UL, 0x6900040300000001UL, 0x000077b5ff391c52UL,
  0x00008c3efdc52894UL, 0x0000dc04feb61e5dUL, 0x0000a11efe2f0fbcUL, 0x00006ea4feae1423UL,
  0x000071dffe392887UL, 0x00008045ffbf24b3UL, 0x0000596afe652848UL, 0x00006445fe5313cfUL,
  0x0000c27afe862b5cUL, 0x0000a1d1feda40f8UL, 0x00006be5fd95218bUL, 0x00008a18feb729ddUL,
  0x00005e30fdbd23e9UL, 0x0000cf5afe81227bUL, 0x000052cafe282ec3UL, 0x5c00004200802241UL,
  0x0500016008000000UL, 0x000794205c027c00UL, 0x79f464065c070043UL, 0x5c0c0043000074eeUL,
  0x1041104100000000UL, 0x6000004200802261UL, 0x1500000008000000UL, 0x0007000060027c00UL,
  0x0000400060070043UL, 0x600c004300000020UL, 0x1041104100000000UL, 0x40007c0000802161UL,
  0x400200e300100034UL, 0x0000110010100101UL, 0x0078078010634202UL, 0x00770000077f0000UL,
  0x400a7c0000000001UL, 0x400d7c0000000000UL, 0x0080228100000000UL, 0x0800000064000042UL,
  0x64020123156000fcUL, 0x0000000000098000UL, 0x000383ff0000000fUL, 0x00000000000383ffUL,
  0x07c403f100000000UL, 0x640c004300000001UL, 0x2042204200000000UL, 0x00000001640b7c00UL,
  0xfbec1e0865000403UL, 0xfb9e511f00000ea6UL, 0xfd350e7a00003db3UL, 0xfaf21b2b0000f979UL,
  0xfc3d225c0000e0a9UL, 0xff7335450000ac3aUL, 0xfbe6234b00001b92UL, 0xfebb256b0000ab07UL,
  0xfd50100400009070UL, 0xfd8414e90000d57fUL, 0xf9c02b0000009029UL, 0xfc3f3b8d00007282UL,
  0xff4d68a200000a91UL, 0xfaec279d0000594aUL, 0xfda613100000fd8cUL, 0xfc3a37620000184cUL,
  0x0080200100005bb8UL, 0x0008010414007c00UL, 0x3435000014020043UL, 0x140500c300038400UL,
  0x0003840000000000UL, 0x0000000000000001UL, 0x0010000000000024UL, 0x00000006140c0042UL,
  0x140d004300000007UL, 0x3438843f00000001UL, 0x0000000014110043UL, 0x008020c100000000UL,
  0x000801842c007c00UL, 0x704a4ac02c020043UL, 0x2c0500c300000100UL, 0x0000000000000000UL,
  0x0000000000000000UL, 0x0010000000000024UL, 0x000000062c0c0042UL, 0x2c0d004300000007UL,
  0x704a4bff00000001UL, 0x000000002c110043UL, 0x0080206100000008UL, 0x0008010420007c00UL,
  0x3420000020020043UL, 0x200500c300038400UL, 0x0003840000000000UL, 0x0000000000000000UL,
  0x0010000000000024UL, 0x00000006200c0042UL, 0x200d004300000007UL, 0x3423843f00000001UL,
  0x0000000020110043UL, 0x0080208100000000UL, 0x0008018424007c00UL, 0x704a4bc024020043UL,
  0x240500c300000100UL, 0x0000000000000000UL, 0x0000000000000000UL, 0x0010000000000024UL,
  0x00000006240c0042UL, 0x240d004300000007UL, 0x704a4cff00000001UL, 0x0000000024110043UL,
  0x0080210100000008UL, 0x0008010c34007c00UL, 0x3427000034020043UL, 0x340500c300038400UL,
  0x0003840000000000UL, 0x0000000000000000UL, 0x0010000000000024UL, 0x00000006340c0042UL,
  0x340d004300000007UL, 0x342a843f00000001UL, 0x0000000034110043UL, 0x008020a100000000UL,
  0x0008010c28007c00UL, 0x342e000028020043UL, 0x280500c300038400UL, 0x0003840000000000UL,
  0x0000000000000000UL, 0x0010000000000024UL, 0x00000006280c0042UL, 0x280d004300000007UL,
  0x3431843f00000001UL, 0x0000000028110043UL, 0x10007c0000000000UL, 0x1000042400000002UL,
  0x0000000000000064UL, 0x4000000010007c00UL, 0x0000006410007bc4UL, 0x10007c0000000000UL,
  0x10077c0000000001UL, 0x100a7c0000000029UL, 0x100c004300000025UL, 0x0000000d00000001UL,
  0xff260127100f0043UL, 0x101e006300000009UL, 0x0000002b00000007UL, 0x10227c0000000025UL,
  0x10247c0000000017UL, 0x2800200100000015UL, 0x3c007c0034002001UL, 0x40007c0000100035UL,
  0x5c00200100100035UL, 0x6400200160002001UL, 0x1400200168002001UL, 0x2400200120002001UL,
  0x28007fe42c002001UL, 0x0000000000000064UL, 0x0000006434007fe4UL, 0x10077c0000000000UL,
  0x100a7c0000000000UL, 0x100c004300000000UL, 0x0000000000000000UL, 0x00000000100f0043UL,
  0x101e006300000000UL, 0x0000000000000000UL, 0x10227c0000000000UL, 0x10247c0000000000UL,
  0x28007c0000000000UL, 0x2800042400000002UL, 0x0000000000000064UL, 0x4000000028007c00UL,
  0x0000006428007bc4UL, 0x008000a100000000UL, 0x0000000234007c00UL, 0x0000006434000424UL,
  0x34007c0000000000UL, 0x34007bc440000000UL, 0x0000000000000064UL, 0x3c007c0000800101UL,
  0x3c00042400000002UL, 0x0000000000000064UL, 0x400000003c007c00UL, 0x000000643c007bc4UL,
  0x0080014100000000UL, 0x0000000240007c00UL, 0x0000006440000424UL, 0x40007c0000000000UL,
  0x40007bc440000000UL, 0x0000000000000064UL, 0x5c007c0000800161UL, 0x5c00042408000002UL,
  0x0000000000000064UL, 0x480000005c007c00UL, 0x000000645c007bc4UL, 0x0080024100000000UL,
  0x0800000260007c00UL, 0x0000006460000424UL, 0x60007c0000000000UL, 0x60007bc448000000UL,
  0x0000000000000064UL, 0x64007c0000800261UL, 0x6400042408000002UL, 0x0000000000000064UL,
  0x4800000064007c00UL, 0x0000006464007bc4UL, 0x0080028100000000UL, 0x0800000268007c00UL,
  0x0000006468000424UL, 0x68007c0000000000UL, 0x68007bc448000000UL, 0x0000000000000064UL,
  0x14007c00008002a1UL, 0x1400042400000002UL, 0x0000000000000064UL, 0x4000000014007c00UL,
  0x0000006414007bc4UL, 0x0080000100000000UL, 0x0000000220007c00UL, 0x0000006420000424UL,
  0x20007c0000000000UL, 0x20007bc440000000UL, 0x0000000000000064UL, 0x24007c0000800061UL,
  0x2400042400000002UL, 0x0000000000000064UL, 0x4000000024007c00UL, 0x0000006424007bc4UL,
  0x0080008100000000UL, 0x000000022c007c00UL, 0x000000642c000424UL, 0x2c007c0000000000UL,
  0x2c007bc440000000UL, 0x0000000000000064UL, 0x000001dd008000c1UL, 0x5c00004200802241UL,
  0x1500000008000000UL, 0x000700005c027c00UL, 0x000040005c070043UL, 0x5c0c004300000020UL,
  0x1041104100000000UL, 0x24007c0000802081UL, 0x2402004300080104UL, 0x00038400342e0000UL,
  0x00000000240500c3UL, 0x0000000000038400UL, 0x0000002400000000UL, 0x240c004200100000UL,
  0x0000000700000006UL, 0x00000001240d0043UL, 0x241100433431843fUL, 0x0000000000000000UL,
  0x34007c0000802101UL, 0x3402012300080008UL, 0x0078000434200000UL, 0x00000004e1000004UL,
  0x00000078000001e0UL, 0x0000002400038400UL, 0x340c004200100000UL, 0x0000000700000006UL,
  0x00000078340d0043UL, 0x341100433423843fUL, 0x0000000000000000UL, 0x0000000210007c00UL,
  0x0000006410000424UL, 0x10007c0000000000UL, 0x10007bc440000000UL, 0x0000000000000064UL,
  0x0000000110007c00UL, 0x00000025100a7c00UL, 0x00000009101e7c00UL, 0x5c00200134002001UL,
  0x34007fe424002001UL, 0x0000000000000064UL, 0x00000000100a7c00UL, 0x00000000101e7c00UL,
  0x0000000234007c00UL, 0x0000006434000424UL, 0x34007c0000000000UL, 0x34007bc440000000UL,
  0x0000000000000064UL, 0x5c007c0000800101UL, 0x5c00042408000002UL, 0x0000000000000064UL,
  0x480000005c007c00UL, 0x000000645c007bc4UL, 0x0080024100000000UL, 0x0000000224007c00UL,
  0x0000006424000424UL, 0x24007c0000000000UL, 0x24007bc440000000UL, 0x0000000000000064UL,
  0x000001fd00800081UL, 0x44007c0000802181UL, 0x440200e300100034UL, 0x0000115504040303UL,
  0x007801e010634000UL, 0x0077000001df0000UL, 0x440a7c0000000001UL, 0x440d7c0000000000UL,
  0x0080226100000000UL, 0x0800000060000042UL, 0x60020123156000fcUL, 0x0000000000098000UL,
  0x0000e0ff00000003UL, 0x00000000000383ffUL, 0x07c403fd00000000UL, 0x600c004300000001UL,
  0x2042204200000000UL, 0x00000001600b7c00UL, 0xfc2c210e61000403UL, 0xfc3c10f20000ef00UL,
  0xfe4c2a2e00005d1eUL, 0xfbc80fea0000072cUL, 0xfc141ade0000eadfUL, 0xfbb410ed0000fd96UL,
  0xfbc4254b000008b5UL, 0xfb771a6e0000fff4UL, 0xfbf245950000001eUL, 0xfc7234b3000068fdUL,
  0xfbba0e340000aa0dUL, 0xfcd21ff300002658UL, 0xfbf90ddf0000c9fcUL, 0xfbf00f81000010afUL,
  0xfc27213d0000eb3bUL, 0xfc3421a90000dcadUL, 0x008022810000ba3eUL, 0x0800000064000042UL,
  0x64027c0015000000UL, 0x6407004300070000UL, 0x0000002000004000UL, 0x00000000640c0043UL,
  0x0080202110411041UL, 0x0008010018007c00UL, 0x3420000018020043UL, 0x180500c30000e100UL,
  0x0000000000000000UL, 0x0000e10000000001UL, 0x0010000000000024UL, 0x00000006180c0042UL,
  0x180d004300000007UL, 0x3423843f00000004UL, 0x0000000018110043UL, 0x0080200100000000UL,
  0x0008018414007c00UL, 0x704a3e1014020043UL, 0x140500c300000240UL, 0x0000000000000000UL,
  0x0000000000000000UL, 0x0010000000000024UL, 0x00000006140c0042UL, 0x140d004300000007UL,
  0x704a408f00000001UL, 0x0000000014110043UL, 0x008020c100000008UL, 0x000800082c007c00UL,
  0x342e00002c020123UL, 0x0010000400780078UL, 0x0000000400000780UL, 0x0003840000000004UL,
  0x0010000000000024UL, 0x000000062c0c0042UL, 0x2c0d004300000007UL, 0x3431843f00000004UL,
  0x000000002c110043UL, 0x10007c0000000000UL, 0x1000042400000002UL, 0x0000000000000064UL,
  0x4000000010007c00UL, 0x0000006410007bc4UL, 0x10007c0000000000UL, 0x10087c0000000001UL,
  0x1012004300000029UL, 0x0000000100000003UL, 0x0000001910207c00UL, 0x0000002710227c00UL,
  0x44007c002c002001UL, 0x6000200100100035UL, 0x1400200164002001UL, 0x2c007fe418002001UL,
  0x0000000000000064UL, 0x0000000010087c00UL, 0x0000000010120043UL, 0x10207c0000000000UL,
  0x10227c0000000000UL, 0x2c007c0000000000UL, 0x2c00042400000002UL, 0x0000000000000064UL,
  0x400000002c007c00UL, 0x000000642c007bc4UL, 0x008000c100000000UL, 0x0000000244007c00UL,
  0x0000006444000424UL, 0x44007c0000000000UL, 0x44007bc440000000UL, 0x0000000000000064UL,
  0x60007c0000800181UL, 0x6000042408000002UL, 0x0000000000000064UL, 0x4800000060007c00UL,
  0x0000006460007bc4UL, 0x0080026100000000UL, 0x0800000264007c00UL, 0x0000006464000424UL,
  0x64007c0000000000UL, 0x64007bc448000000UL, 0x0000000000000064UL, 0x14007c0000800281UL,
  0x1400042400000002UL, 0x0000000000000064UL, 0x4000000014007c00UL, 0x0000006414007bc4UL,
  0x0080000100000000UL, 0x0000000218007c00UL, 0x0000006418000424UL, 0x18007c0000000000UL,
  0x18007bc440000000UL, 0x0000000000000064UL, 0x0000021d00800021UL, 0x48007c00008021a1UL,
  0x480200e300100034UL, 0x0000110010100101UL, 0x0078078010634303UL, 0x00770000077f0000UL,
  0x480a7c0000000001UL, 0x480d7c0000000000UL, 0x008022a100000000UL, 0x0800000068000042UL,
  0x68020123156000fcUL, 0x0000000000090000UL, 0x000383ff0000000fUL, 0x00000000000383ffUL,
  0x07c403f100000000UL, 0x680c004300000001UL, 0x2042204200000000UL, 0x00000001680b7c00UL,
  0xfeda239969000403UL, 0xfe4c2b110000696dUL, 0xfea8276000003520UL, 0xfe604b4e00008afaUL,
  0xfe1b23570000d0f1UL, 0xfe072f2c00007ccfUL, 0xfe1a27ea0000f24aUL, 0xfdfb364400004a7eUL,
  0xfe721f7d0000eb6bUL, 0xfe804100000039f1UL, 0xfeb72ab000006a83UL, 0xfdcd2f050000ab1eUL,
  0xfefd20670000a652UL, 0xfea2651400008f2dUL, 0xfe443aee00005442UL, 0xfe401bf400001c31UL,
  0x0080224100009ceaUL, 0x080000005c000042UL, 0x5c027c0005000160UL, 0x5c07004300078820UL,
  0x000052095a3959cdUL, 0x000000005c0c0043UL, 0x008020c110411041UL, 0x000801042c007c00UL,
  0x342e00002c020043UL, 0x2c0500c300038400UL, 0x0003840000000000UL, 0x0000000000000001UL,
  0x0010000000000024UL, 0x000000062c0c0042UL, 0x2c0d004300000007UL, 0x3431843f00000001UL,
  0x000000002c110043UL, 0x0080212100000000UL, 0x0008018438007c00UL, 0x704a4cc038020043UL,
  0x380500c300000100UL, 0x0000000000000000UL, 0x0000000000000000UL, 0x0010000000000024UL,
  0x00000006380c0042UL, 0x380d004300000007UL, 0x704a4dff00000001UL, 0x0000000038110043UL,
  0x0080208100000008UL, 0x0008010424007c00UL, 0x3427000024020043UL, 0x240500c300038400UL,
  0x0003840000000000UL, 0x0000000000000000UL, 0x0010000000000024UL, 0x00000006240c0042UL,
  0x240d004300000007UL, 0x342a843f00000001UL, 0x0000000024110043UL, 0x0080202100000000UL,
  0x0008010c18007c00UL, 0x9000000018020043UL, 0x180500c300038400UL, 0x0003840000000000UL,
  0x0000000000000000UL, 0x0010000000000024UL, 0x00000006180c0042UL, 0x180d004300000007UL,
  0x9003843f00000001UL, 0x0000000018110043UL, 0x10007c0000000008UL, 0x1000042400000002UL,
  0x0000000000000064UL, 0x4000000010007c00UL, 0x0000006410007bc4UL, 0x10007c0000000000UL,
  0x10037c0000000001UL, 0x1015004300000025UL, 0x000000130000000dUL, 0x00000009101e0043UL,
  0x10247c000000002bUL, 0x180020010000001bUL, 0x0010003548007c00UL, 0x680020015c002001UL,
  0x2c00200124002001UL, 0x18007fe438002001UL, 0x0000000000000064UL, 0x0000000010037c00UL,
  0x0000000010150043UL, 0x101e004300000000UL, 0x0000000000000000UL, 0x0000000010247c00UL,
  0x0000000218007c00UL, 0x0000006418000424UL, 0x18007c0000000000UL, 0x18007bc440000000UL,
  0x0000000000000064UL, 0x48007c0000800021UL, 0x4800042400000002UL, 0x0000000000000064UL,
  0x4000000048007c00UL, 0x0000006448007bc4UL, 0x008001a100000000UL, 0x080000025c007c00UL,
  0x000000645c000424UL, 0x5c007c0000000000UL, 0x5c007bc448000000UL, 0x0000000000000064UL,
  0x68007c0000800241UL, 0x6800042408000002UL, 0x0000000000000064UL, 0x4800000068007c00UL,
  0x0000006468007bc4UL, 0x008002a100000000UL, 0x0000000224007c00UL, 0x0000006424000424UL,
  0x24007c0000000000UL, 0x24007bc440000000UL, 0x0000000000000064UL, 0x2c007c0000800081UL,
  0x2c00042400000002UL, 0x0000000000000064UL, 0x400000002c007c00UL, 0x000000642c007bc4UL,
  0x008000c100000000UL, 0x0000000238007c00UL, 0x0000006438000424UL, 0x38007c0000000000UL,
  0x38007bc440000000UL, 0x0000000000000064UL, 0x0000023d00800121UL, 0x008022610000025dUL,
  0x0800000060000042UL, 0x60027c0015000000UL, 0x6007004300070000UL, 0x0000002000004000UL,
  0x00000000600c0043UL, 0x0080204110411041UL, 0x000801001c007c00UL, 0x900000001c020043UL,
  0x1c0500c300038400UL, 0x0003840000000000UL, 0x0000000000000000UL, 0x0010000000000024UL,
  0x000000061c0c0042UL, 0x1c0d004300000007UL, 0x9007083f00000002UL, 0x000000001c110043UL,
  0x008020c100000008UL, 0x000800082c007c00UL, 0x342000002c020123UL, 0x0020001000780078UL,
  0x0000001000000f00UL, 0x0007080000000002UL, 0x0010000000000024UL, 0x000000062c0c0042UL,
  0x2c0d004300000007UL, 0x3427083f00000002UL, 0x000000002c110043UL, 0x10007c0000000000UL,
  0x1000042400000002UL, 0x0000000000000064UL, 0x4000000010007c00UL, 0x0000006410007bc4UL,
  0x10007c0000000000UL, 0x10087c0000000001UL, 0x10207c0000000027UL, 0x2c00200100000005UL,
  0x1c00200160002001UL, 0x000000642c007fe4UL, 0x10087c0000000000UL, 0x10207c0000000000UL,
  0x2c007c0000000000UL, 0x2c00042400000002UL, 0x0000000000000064UL, 0x400000002c007c00UL,
  0x000000642c007bc4UL, 0x008000c100000000UL, 0x0800000260007c00UL, 0x0000006460000424UL,
  0x60007c0000000000UL, 0x60007bc448000000UL, 0x0000000000000064UL, 0x1c007c0000800261UL,
  0x1c00042400000002UL, 0x0000000000000064UL, 0x400000001c007c00UL, 0x000000641c007bc4UL,
  0x0080004100000000UL, 0x008021410000027dUL, 0x10d000343c007c00UL, 0x102001013c0200e3UL,
  0x10e3420200001100UL, 0x0eff000000780f00UL, 0x0000000100770000UL, 0x000000003c0a7c00UL,
  0x000000003c0d7c00UL, 0x6400004200802281UL, 0x156000fc08000000UL, 0x0009000064020123UL,
  0x0000000f00000000UL, 0x000707ff000383ffUL, 0x0000000000000000UL, 0x00000001078403f1UL,
  0x00000000640c0043UL, 0x640b7c0020422042UL, 0x6500080300000001UL, 0x0000f7f0fef01424UL,
  0x00005ecafeb8057bUL, 0x0000db32fed81b56UL, 0x0000a6b2fe1d0e51UL, 0x000095dbfdc71ee9UL,
  0x000099fffe9411ceUL, 0x0000e26efead0e82UL, 0x000092d3fe7c0d1eUL, 0x00005bbafea91d35UL,
  0x0000761eff3421e6UL, 0x00008bc3fea40999UL, 0x0000e387fe4d236bUL, 0x0000e15dfec308f9UL,
  0x00003ec8fd1f1a7fUL, 0x00007a2efe701553UL, 0x0000e5d4fdcf1cd7UL, 0x0000a3fdfe4f146bUL,
  0x00007094fd3d117dUL, 0x00004650fdc00f11UL, 0x00000aa5fec8119bUL, 0x0000024ffe7213a2UL,
  0x00002e2bfd77232bUL, 0x00000e61fecb0b41UL, 0x0000a51afec10e15UL, 0x000081a4fe971245UL,
  0x00001b2ffe6b100cUL, 0x00009723feb00a36UL, 0x00000439fc8746a3UL, 0x0000e9d5fe340e5dUL,
  0x0000eae7fe79200bUL, 0x00005429fe971545UL, 0x0000bd91fd8e16d1UL, 0x5c00004200802241UL,
  0x1500000008000000UL, 0x000700005c027c00UL, 0x000040005c070043UL, 0x5c0c004300000020UL,
  0x1041104100000000UL, 0x38007c0000802121UL, 0x3802004308880300UL, 0x0002580034200000UL,
  0x00000000380500c3UL, 0x0000000200000000UL, 0x0000002400070800UL, 0x380c004200100000UL,
  0x0000000700000006UL, 0x00000002380d0043UL, 0x381100433427083fUL, 0x0000000000000000UL,
  0x20007c0000802061UL, 0x2002004308880184UL, 0x000001567049c8c0UL, 0x00000000200500c3UL,
  0x0000000000000000UL, 0x0000002400000000UL, 0x200c004200100000UL, 0x0000000700000006UL,
  0x00000001200d0043UL, 0x201100437049cd07UL, 0x0000000800000000UL, 0x18007c0000802021UL,
  0x1802012300080008UL, 0x0078007834334600UL, 0x00000f0000200010UL, 0x0000000200000010UL,
  0x0000002400070800UL, 0x180c004200100000UL, 0x0000000700000006UL, 0x00000002180d0043UL,
  0x18110043343a4e3fUL, 0x0000000000000000UL, 0x0000000210007c00UL, 0x0000006410000424UL,
  0x10007c0000000000UL, 0x10007bc440000000UL, 0x0000000000000064UL, 0x0000000110007c00UL,
  0x0000002510037c00UL, 0x00000013100c0043UL, 0x101e7c0000000007UL, 0x10227c0000000029UL,
  0x1800200100000015UL, 0x10d000353c007c00UL, 0x640020015c002001UL, 0x3800200120002001UL,
  0x0000006418007fe4UL, 0x10037c0000000000UL, 0x100c004300000000UL, 0x0000000000000000UL,
  0x00000000101e7c00UL, 0x0000000010227c00UL, 0x0000000218007c00UL, 0x0000006418000424UL,
  0x18007c0000000000UL, 0x18007bc440000000UL, 0x0000000000000064UL, 0x3c007c0000800021UL,
  0x3c00042400000002UL, 0x0000000000000064UL, 0x400000003c007c00UL, 0x000000643c007bc4UL,
  0x0080014100000000UL, 0x080000025c007c00UL, 0x000000645c000424UL, 0x5c007c0000000000UL,
  0x5c007bc448000000UL, 0x0000000000000064UL, 0x64007c0000800241UL, 0x6400042408000002UL,
  0x0000000000000064UL, 0x4800000064007c00UL, 0x0000006464007bc4UL, 0x0080028100000000UL,
  0x0000000220007c00UL, 0x0000006420000424UL, 0x20007c0000000000UL, 0x20007bc440000000UL,
  0x0000000000000064UL, 0x38007c0000800061UL, 0x3800042400000002UL, 0x0000000000000064UL,
  0x4000000038007c00UL, 0x0000006438007bc4UL, 0x0080012100000000UL, 0x008021610000029dUL,
  0x2010003440007c00UL, 0x04040303400200e3UL, 0x1063430300002200UL, 0x01df0000007801e0UL,
  0x0000000100770000UL, 0x01000400400a7c00UL, 0x00000000400d7c00UL, 0x68000042008022a1UL,
  0x156000fc08000000UL, 0x0009000068020123UL, 0x0000000300000000UL, 0x0001c1ff0000383fUL,
  0x0000000000000000UL, 0x00000001078403fdUL, 0x00000000680c0043UL, 0x680b7c0020422042UL,
  0x6900080300000001UL, 0x0000fb8afeb81a28UL, 0x0000b70eff686fa9UL, 0x0000dffdfe261c48UL,
  0x00000544fe203d0fUL, 0x00001752fe6e13c9UL, 0x000062ddfde825d7UL, 0x0000293c005225d4UL,
  0x0000c49ffe06282dUL, 0x00007e85fe3f1526UL, 0x0000d50900112b81UL, 0x00006322fd7c30acUL,
  0x0000212cff261479UL, 0x00008208fea03e54UL, 0x00008743fdff18c4UL, 0x00007301fdff3866UL,
  0x000014e8fed01237UL, 0x0000a95600621e02UL, 0x000049cdfe011aecUL, 0x000006a2fdaa2344UL,
  0x00004c0efea6202fUL, 0x00006a3cff351be8UL, 0x0000b051fe01169bUL, 0x000096b5fd7d1b5aUL,
  0x00008920fdef3d6bUL, 0x00001ae7ff612646UL, 0x0000fcbdfda328ceUL, 0x0000ec7cf9c15fb5UL,
  0x00008096ff491451UL, 0x0000dc8ffe794358UL, 0x00005ec0fe153854UL, 0x0000809bfdf53f6bUL,
  0x0000f315fed313b3UL, 0x6000004200802261UL, 0x1500000008000000UL, 0x0007000060027c00UL,
  0x0000400060070043UL, 0x600c004300000020UL, 0x1041104100000000UL, 0x28007c00008020a1UL,
  0x2802012300880200UL, 0x0078007834334600UL, 0x00000f0000200002UL, 0x0000000100000000UL,
  0x0000002400000004UL, 0x280c004200100000UL, 0x0000000700000006UL, 0x00000008280d0043UL,
  0x28110043343a4e3fUL, 0x0000000000000000UL, 0x1c007c0000802041UL, 0x1c02004300080184UL,
  0x0000048070497c40UL, 0x000000001c0500c3UL, 0x0000000000000000UL, 0x0000002400000000UL,
  0x1c0c004200100000UL, 0x0000000700000006UL, 0x000000011c0d0043UL, 0x1c110043704980ffUL,
  0x0000000800000000UL, 0x20007c0000802061UL, 0x2002012300080008UL, 0x003c003c34318400UL,
  0x0000078000200004UL, 0x0000000800000004UL, 0x000000240001c200UL, 0x200c004200100000UL,
  0x0000000700000006UL, 0x00000008200d0043UL, 0x201100433433463fUL, 0x0000000000000000UL,
  0x0000000210007c00UL, 0x0000006410000424UL, 0x10007c0000000000UL, 0x10007bc440000000UL,
  0x0000000000000064UL, 0x0000000110007c00UL, 0x0000002710057c00UL, 0x0000000b100f0043UL,
  0x10207c0000000005UL, 0x10247c000000002bUL, 0x2000200100000017UL, 0x2010003540007c00UL,
  0x6800200160002001UL, 0x280020011c002001UL, 0x0000006420007fe4UL, 0x10057c0000000000UL,
  0x100f004300000000UL, 0x0000000000000000UL, 0x0000000010207c00UL, 0x0000000010247c00UL,
  0x0000000220007c00UL, 0x0000006420000424UL, 0x20007c0000000000UL, 0x20007bc440000000UL,
  0x0000000000000064UL, 0x40007c0000800061UL, 0x4000042400000002UL, 0x0000000000000064UL,
  0x4000000040007c00UL, 0x0000006440007bc4UL, 0x0080016100000000UL, 0x0800000260007c00UL,
  0x0000006460000424UL, 0x60007c0000000000UL, 0x60007bc448000000UL, 0x0000000000000064UL,
  0x68007c0000800261UL, 0x6800042408000002UL, 0x0000000000000064UL, 0x4800000068007c00UL,
  0x0000006468007bc4UL, 0x008002a100000000UL, 0x000000021c007c00UL, 0x000000641c000424UL,
  0x1c007c0000000000UL, 0x1c007bc440000000UL, 0x0000000000000064UL, 0x28007c0000800041UL,
  0x2800042400000002UL, 0x0000000000000064UL, 0x4000000028007c00UL, 0x0000006428007bc4UL,
  0x008000a100000000UL, 0x00802181000002bdUL, 0x0010003444007c00UL, 0x10100101440200e3UL,
  0x1077400400001100UL, 0x03bf0000003c03c0UL, 0x000f0020003b0000UL, 0x00000000440a7c00UL,
  0x00000000440d7c00UL, 0x48007c00008021a1UL, 0x480200e300100020UL, 0x0000110010100101UL,
  0x003c03c010634400UL, 0x003b000003bf0000UL, 0x480a7c00001f1020UL, 0x480d7c0000000000UL,
  0x0080224100000000UL, 0x080000005c000042UL, 0x5c020123156000fcUL, 0x0000000000088000UL,
  0x0000e0ff0000000fUL, 0x00000000000383ffUL, 0x070403f100000000UL, 0x5c0c004300000001UL,
  0x2042204200000000UL, 0x000000015c0b7c00UL, 0xffa61e7f5d001003UL, 0xff8b1fca0000903bUL,
  0xff0c1c6c0000217bUL, 0xfe7326ef00003bb6UL, 0xfef03bad0000c5a5UL, 0xfea92c0100004ef6UL,
  0xff4126290000bc36UL, 0xffb5278100006f80UL, 0x004c330300009282UL, 0xfff6241d000013abUL,
  0xfdec687d000052deUL, 0xff091f3100007090UL, 0xfe122ef500005dd9UL, 0xff05275d00004bf8UL,
  0xff442e8c000061c7UL, 0xfe3828ab000083ccUL, 0xff93211b0000da60UL, 0xff0c16810000d5f8UL,
  0x005527030000a5a8UL, 0xffce33740000d312UL, 0xfe562b9600003d3aUL, 0xfe9318ca0000e7d6UL,
  0xfebc1a6900005ae1UL, 0x00601bb40000cef5UL, 0xff1422bf00004865UL, 0xfeee2bc600007634UL,
  0xfdf534da00000920UL, 0xfe01421d0000f9f9UL, 0xfeac296e00004c6fUL, 0xff7525ba0000ee7dUL,
  0xfdb61e1800002049UL, 0xff0727e60000debcUL, 0xffed1a960000969fUL, 0xfed422720000771cUL,
  0xff2d1ddd0000f115UL, 0xfe4e38260000a483UL, 0x0024246a00001bc3UL, 0xff33266c0000db50UL,
  0xff193d620000fc4dUL, 0xff0020a500001da7UL, 0xff14207c000030f7UL, 0xfe2826180000f037UL,
  0xff1b26500000e9d6UL, 0xfe8e250100003356UL, 0xffbd23ce0000e0baUL, 0xfe7829b10000c90aUL,
  0xfeed36ab0000d1ccUL, 0xfeef3b63000079a8UL, 0x005c3bb3000039bcUL, 0xff04242e00006ff9UL,
  0xfec430c60000345eUL, 0xff3b271f000026ebUL, 0xfd2c56bb00002fe8UL, 0xffa5215f000056efUL,
  0xffa62a0f00002515UL, 0xff2938550000d379UL, 0xff4229fb0000fcd2UL, 0xff1915db0000bb04UL,
  0xfffa270900007c60UL, 0xfe383a3200007f98UL, 0xfeaf3634000046edUL, 0xff0319a4000080f5UL,
  0xffd9208d0000e806UL, 0xff4b2d260000ecf2UL, 0x008022810000b4abUL, 0x0800000064000042UL,
  0x64027c0015000000UL, 0x6407004300070000UL, 0x0000002000004000UL, 0x00000000640c0043UL,
  0x0080212110411041UL, 0x0008000038007c00UL, 0x3431840038020123UL, 0x00200010003c003cUL,
  0x0000002000000780UL, 0x0000000000000001UL, 0x0010000000000024UL, 0x00000006380c0042UL,
  0x380d004300000007UL, 0x3433463f00000004UL, 0x0000000038110043UL, 0x008020e100000000UL,
  0x0008018430007c00UL, 0x70495d8030020043UL, 0x300500c300000800UL, 0x0000000000000000UL,
  0x0000000000000000UL, 0x0010000000000024UL, 0x00000006300c0042UL, 0x300d004300000007UL,
  0x704965bf00000001UL, 0x0000000030110043UL, 0x0080210100000008UL, 0x0008000034007c00UL,
  0x3431841034020123UL, 0x00200010003c003cUL, 0x0000002000000780UL, 0x0000000000000001UL,
  0x0010000000000024UL, 0x00000006340c0042UL, 0x340d004300000007UL, 0x3433463f00000004UL,
  0x0000000034110043UL, 0x0080208100000000UL, 0x0008010824007c00UL, 0x342e000024020043UL,
  0x240500c30000e100UL, 0x0000e10000000000UL, 0x0000000000000000UL, 0x0010000000000024UL,
  0x00000006240c0042UL, 0x240d004300000007UL, 0x3431843f00000004UL, 0x0000000024110043UL,
  0x0080202100000000UL, 0x0008010818007c00UL, 0x3427000018020043UL, 0x180500c30000e100UL,
  0x0000e10000000000UL, 0x0000000000000000UL, 0x0010000000000024UL, 0x00000006180c0042UL,
  0x180d004300000007UL, 0x342a843f00000004UL, 0x0000000018110043UL, 0x10007c0000000000UL,
  0x1000042400000002UL, 0x0000000000000064UL, 0x4000000010007c00UL, 0x0000006410007bc4UL,
  0x10007c0000000000UL, 0x10037c0000000001UL, 0x10067c0000000029UL, 0x1012004300000025UL,
  0x0000000f00000013UL, 0x0000001110150063UL, 0x000000190000000fUL, 0x0000001b101e7c00UL,
  0x0000002510227c00UL, 0x2400200118002001UL, 0x0010003544007c00UL, 0x0010002148007c00UL,
  0x640020015c002001UL, 0x3400200130002001UL, 0x18007fe438002001UL, 0x0000000000000064UL,
  0x0000006424007fe4UL, 0x10037c0000000000UL, 0x10067c0000000000UL, 0x1012004300000000UL,
  0x0000000000000000UL, 0x0000000010150063UL, 0x0000000000000000UL, 0x00000000101e7c00UL,
  0x0000000010227c00UL, 0x0000000218007c00UL, 0x0000006418000424UL, 0x18007c0000000000UL,
  0x18007bc440000000UL, 0x0000000000000064UL, 0x24007c0000800021UL, 0x2400042400000002UL,
  0x0000000000000064UL, 0x4000000024007c00UL, 0x0000006424007bc4UL, 0x0080008100000000UL,
  0x0000000244007c00UL, 0x0000006444000424UL, 0x44007c0000000000UL, 0x44007bc440000000UL,
  0x0000000000000064UL, 0x48007c0000800181UL, 0x4800042400000002UL, 0x0000000000000064UL,
  0x4000000048007c00UL, 0x0000006448007bc4UL, 0x008001a100000000UL, 0x080000025c007c00UL,
  0x000000645c000424UL, 0x5c007c0000000000UL, 0x5c007bc448000000UL, 0x0000000000000064UL,
  0x64007c0000800241UL, 0x6400042408000002UL, 0x0000000000000064UL, 0x4800000064007c00UL,
  0x0000006464007bc4UL, 0x0080028100000000UL, 0x0000000230007c00UL, 0x0000006430000424UL,
  0x30007c0000000000UL, 0x30007bc440000000UL, 0x0000000000000064UL, 0x34007c00008000e1UL,
  0x3400042400000002UL, 0x0000000000000064UL, 0x4000000034007c00UL, 0x0000006434007bc4UL,
  0x0080010100000000UL, 0x0000000238007c00UL, 0x0000006438000424UL, 0x38007c0000000000UL,
  0x38007bc440000000UL, 0x0000000000000064UL, 0x000002dd00800121UL, 0x3c007c0000802141UL,
  0x3c0200e300100034UL, 0x0000110010100101UL, 0x003c03c010774004UL, 0x003b000003bf0000UL,
  0x3c0a7c00000f0040UL, 0x3c0d7c0000000000UL, 0x0080216100000000UL, 0x0010002040007c00UL,
  0x10100101400200e3UL, 0x1077400000001100UL, 0x03bf0000003c03c0UL, 0x001f1040003b0000UL,
  0x00000000400a7c00UL, 0x00000000400d7c00UL, 0x44007c0000802181UL, 0x440200e300100020UL,
  0x0000110010100101UL, 0x003c03c010774000UL, 0x003b000003bf0000UL, 0x440a7c00002f2040UL,
  0x440d7c0000000000UL, 0x008021a100000000UL, 0x0010002048007c00UL, 0x10100101480200e3UL,
  0x1063440000001100UL, 0x03bf0000003c03c0UL, 0x003f3040003b0000UL, 0x00000000480a7c00UL,
  0x00000000480d7c00UL, 0x6000004200802261UL, 0x356000fc08000000UL, 0x000a000060020123UL,
  0x0000000f00000000UL, 0x0001c1ff0000e0ffUL, 0x0000000000000000UL, 0x00000001078403f1UL,
  0x00000000600c0063UL, 0xff80ffb120422042UL, 0x00000001600b7c00UL, 0xf76e234761000803UL,
  0xf690538500006394UL, 0xf86e255c0000f335UL, 0xf8ad3f6200008f01UL, 0xf8ec3ddd0000abbfUL,
  0xf9083fc00000c053UL, 0xf7de30270000c0ddUL, 0xf88b40ed00004579UL, 0xf7851e8c0000bef5UL,
  0xf793280c00004e31UL, 0xf9f2389900004b29UL, 0xf8342c7b00002fe6UL, 0xf81026aa0000b020UL,
  0xf6fe234e00007654UL, 0xf8371f2500000daaUL, 0xf82742200000dd7fUL, 0xf89734690000685eUL,
  0xf86b2e3e0000127fUL, 0xf8d4507c000090ffUL, 0xf85f30940000aa2eUL, 0xf7943d700000f2b6UL,
  0xf8be27090000ff22UL, 0xf7ef281100000d8fUL, 0xf8cd320300005c80UL, 0xf84d20ce00005122UL,
  0xf876249e000029cdUL, 0xf80d30970000bc55UL, 0xf904239100006a98UL, 0xf89c3b8c0000baa4UL,
  0xf8752da500002729UL, 0xf7bb40f30000691cUL, 0xf91a45f8000005edUL, 0x008022a100006bc3UL,
  0x0800000068000042UL, 0x68027c0015000000UL, 0x6807004300070000UL, 0x0000002000004000UL,
  0x00000000680c0043UL, 0x008020e110411041UL, 0x0008010030007c00UL, 0x3427000030020043UL,
  0x300500c30000e100UL, 0x0003840000000000UL, 0x0000000000000001UL, 0x0010000000000024UL,
  0x00000006300c0042UL, 0x300d004300000007UL, 0x342a843f00000002UL, 0x0000000030110043UL,
  0x0080210100000000UL, 0x0008018434007c00UL, 0x7049658034020043UL, 0x340500c300000800UL,
  0x0000000000000000UL, 0x0000000000000000UL, 0x0010000000000024UL, 0x00000006340c0042UL,
  0x340d004300000007UL, 0x70496dbf00000001UL, 0x0000000034110043UL, 0x0080204100000008UL,
  0x000801001c007c00UL, 0x3427e1001c020043UL, 0x1c0500c30000e100UL, 0x0003840000000000UL,
  0x0000000000000001UL, 0x0010000000000024UL, 0x000000061c0c0042UL, 0x1c0d004300000007UL,
  0x342a843f00000002UL, 0x000000001c110043UL, 0x0080212100000000UL, 0x0008010038007c00UL,
  0x3428c20038020043UL, 0x380500c30000e100UL, 0x0003840000000000UL, 0x0000000000000001UL,
  0x0010000000000024UL, 0x00000006380c0042UL, 0x380d004300000007UL, 0x342a843f00000002UL,
  0x0000000038110043UL, 0x0080208100000000UL, 0x0008010024007c00UL, 0x3429a30024020043UL,
  0x240500c30000e100UL, 0x0003840000000000UL, 0x0000000000000001UL, 0x0010000000000024UL,
  0x00000006240c0042UL, 0x240d004300000007UL, 0x342a843f00000002UL, 0x0000000024110043UL,
  0x008020c100000000UL, 0x000801002c007c00UL, 0x342e00002c020043UL, 0x2c0500c30000e100UL,
  0x0000e10000000000UL, 0x0000000000000000UL, 0x0010000000000024UL, 0x000000062c0c0042UL,
  0x2c0d004300000007UL, 0x3431843f00000004UL, 0x000000002c110043UL, 0x0080206100000000UL,
  0x0008010820007c00UL, 0x3436c20020020043UL, 0x200500c30000e100UL, 0x0000e10000000000UL,
  0x0000000000000000UL, 0x0010000000000024UL, 0x00000006200c0042UL, 0x200d004300000007UL,
  0x3438843f00000002UL, 0x0000000020110043UL, 0x0080202100000000UL, 0x0008010818007c00UL,
  0x3420000018020043UL, 0x180500c30000e100UL, 0x0000e10000000000UL, 0x0000000000000000UL,
  0x0010000000000024UL, 0x00000006180c0042UL, 0x180d004300000007UL, 0x3423843f00000004UL,
  0x0000000018110043UL, 0x10007c0000000000UL, 0x1000042400000002UL, 0x0000000000000064UL,
  0x4000000010007c00UL, 0x0000006410007bc4UL, 0x10007c0000000000UL, 0x10037c0000000001UL,
  0x10057c000000002bUL, 0x100c004300000027UL, 0x000000110000000fUL, 0x00000005100f0123UL,
  0x0000001500000011UL, 0x0000001100000013UL, 0x0000000900000017UL, 0x0000001900000011UL,
  0x0000001b10207c00UL, 0x0000000d10247c00UL, 0x2000200118002001UL, 0x001000353c007c00UL,
  0x0010002140007c00UL, 0x0010002144007c00UL, 0x0010002148007c00UL, 0x6800200160002001UL,
  0x240020011c002001UL, 0x300020012c002001UL, 0x3800200134002001UL, 0x0000006418007fe4UL,
  0x20007fe400000000UL, 0x0000000000000064UL, 0x0000000010037c00UL, 0x0000000010057c00UL,
  0x00000000100c0043UL, 0x100f012300000000UL, 0x0000000000000000UL, 0x0000000000000000UL,
  0x0000000000000000UL, 0x0000000000000000UL, 0x10207c0000000000UL, 0x10247c0000000000UL,
  0x18007c0000000000UL, 0x1800042400000002UL, 0x0000000000000064UL, 0x4000000018007c00UL,
  0x0000006418007bc4UL, 0x0080002100000000UL, 0x0000000220007c00UL, 0x0000006420000424UL,
  0x20007c0000000000UL, 0x20007bc440000000UL, 0x0000000000000064UL, 0x3c007c0000800061UL,
  0x3c00042400000002UL, 0x0000000000000064UL, 0x400000003c007c00UL, 0x000000643c007bc4UL,
  0x0080014100000000UL, 0x0000000240007c00UL, 0x0000006440000424UL, 0x40007c0000000000UL,
  0x40007bc440000000UL, 0x0000000000000064UL, 0x44007c0000800161UL, 0x4400042400000002UL,
  0x0000000000000064UL, 0x4000000044007c00UL, 0x0000006444007bc4UL, 0x0080018100000000UL,
  0x0000000248007c00UL, 0x0000006448000424UL, 0x48007c0000000000UL, 0x48007bc440000000UL,
  0x0000000000000064UL, 0x60007c00008001a1UL, 0x6000042408000002UL, 0x0000000000000064UL,
  0x4800000060007c00UL, 0x0000006460007bc4UL, 0x0080026100000000UL, 0x0800000268007c00UL,
  0x0000006468000424UL, 0x68007c0000000000UL, 0x68007bc448000000UL, 0x0000000000000064UL,
  0x1c007c00008002a1UL, 0x1c00042400000002UL, 0x0000000000000064UL, 0x400000001c007c00UL,
  0x000000641c007bc4UL, 0x0080004100000000UL, 0x0000000224007c00UL, 0x0000006424000424UL,
  0x24007c0000000000UL, 0x24007bc440000000UL, 0x0000000000000064UL, 0x2c007c0000800081UL,
  0x2c00042400000002UL, 0x0000000000000064UL, 0x400000002c007c00UL, 0x000000642c007bc4UL,
  0x008000c100000000UL, 0x0000000230007c00UL, 0x0000006430000424UL, 0x30007c0000000000UL,
  0x30007bc440000000UL, 0x0000000000000064UL, 0x34007c00008000e1UL, 0x3400042400000002UL,
  0x0000000000000064UL, 0x4000000034007c00UL, 0x0000006434007bc4UL, 0x0080010100000000UL,
  0x0000000238007c00UL, 0x0000006438000424UL, 0x38007c0000000000UL, 0x38007bc440000000UL,
  0x0000000000000064UL, 0x000002fd00800121UL, 0x3c007c0000802141UL, 0x3c0200e300100034UL,
  0x0000110010100101UL, 0x003c03c010774003UL, 0x003b000003bf0000UL, 0x3c0a7c00000f0040UL,
  0x3c0d7c0000000000UL, 0x0080216100000000UL, 0x0010002040007c00UL, 0x10100101400200e3UL,
  0x1077400000001100UL, 0x03bf0000003c03c0UL, 0x001f1040003b0000UL, 0x00000000400a7c00UL,
  0x00000000400d7c00UL, 0x44007c0000802181UL, 0x440200e300100020UL, 0x0000110010100101UL,
  0x003c03c010774000UL, 0x003b000003bf0000UL, 0x440a7c00002f2040UL, 0x440d7c0000000000UL,
  0x008021a100000000UL, 0x0010002048007c00UL, 0x10100101480200e3UL, 0x1063430000001100UL,
  0x03bf0000003c03c0UL, 0x003f3040003b0000UL, 0x00000000480a7c00UL, 0x00000000480d7c00UL,
  0x5c00004200802241UL, 0x156000fc08000000UL, 0x000980005c020123UL, 0x0000000f00000000UL,
  0x0001c1ff0000e0ffUL, 0x0000000000000000UL, 0x00000001078403f1UL, 0x000000005c0c0043UL,
  0x5c0b7c0020422042UL, 0x5d00080300000001UL, 0x00007ec2f7c45ed1UL, 0x0000b0f7ff33247cUL,
  0x0000f85bfadf1d4cUL, 0x000073d3fb5623deUL, 0x00002d27fb7c26cdUL, 0x00002a0cfbec2044UL,
  0x0000ec8bfbd22966UL, 0x0000f56ffc9d3718UL, 0x00001a62fe922b44UL, 0x0000f6a0fdbe29d0UL,
  0x0000923ffca62c7aUL, 0x00003fcefd3429b0UL, 0x0000cc60fda03926UL, 0x00003af2fc9a2b63UL,
  0x000062a8fbd420b5UL, 0x0000f623fd3d2e2aUL, 0x0000f9b3fc5b254bUL, 0x0000774efc992a96UL,
  0x00008cb2fd501936UL, 0x0000d107fd6a2e58UL, 0x00006446fb541eddUL, 0x0000acd1fc8028c6UL,
  0x000042ecfc9a33b5UL, 0x00009836fb672d91UL, 0x00001200ff4423d1UL, 0x00003d1dfd592992UL,
  0x0000f1d5fd0d29efUL, 0x0000636dfcfc27e2UL, 0x0000671cfcdc2806UL, 0x0000420bfc7743a8UL,
  0x0000366cfd4a19d4UL, 0x00006677fc201df9UL, 0x6400004200802281UL, 0x1500000008000000UL,
  0x0007000064027c00UL, 0x0000400064070043UL, 0x640c004300000020UL, 0x1041104100000000UL,
  0x2c007c00008020c1UL, 0x2c02004300080100UL, 0x0000e10034200000UL, 0x000000002c0500c3UL,
  0x0000000100038400UL, 0x0000002400000000UL, 0x2c0c004200100000UL, 0x0000000700000006UL,
  0x000000022c0d0043UL, 0x2c1100433423843fUL, 0x0000000000000000UL, 0x30007c00008020e1UL,
  0x3002004300080184UL, 0x0000080070496d80UL, 0x00000000300500c3UL, 0x0000000000000000UL,
  0x0000002400000000UL, 0x300c004200100000UL, 0x0000000700000006UL, 0x00000001300d0043UL,
  0x30110043704975bfUL, 0x0000000800000000UL, 0x1c007c0000802041UL, 0x1c02004300080100UL,
  0x0000e1003420e100UL, 0x000000001c0500c3UL, 0x0000000100038400UL, 0x0000002400000000UL,
  0x1c0c004200100000UL, 0x0000000700000006UL, 0x000000021c0d0043UL, 0x1c1100433423843fUL,
  0x0000000000000000UL, 0x34007c0000802101UL, 0x3402004300080100UL, 0x0000e1003421c200UL,
  0x00000000340500c3UL, 0x0000000100038400UL, 0x0000002400000000UL, 0x340c004200100000UL,
  0x0000000700000006UL, 0x00000002340d0043UL, 0x341100433423843fUL, 0x0000000000000000UL,
  0x20007c0000802061UL, 0x2002004300080100UL, 0x0000e1003422a300UL, 0x00000000200500c3UL,
  0x0000000100038400UL, 0x0000002400000000UL, 0x200c004200100000UL, 0x0000000700000006UL,
  0x00000002200d0043UL, 0x201100433423843fUL, 0x0000000000000000UL, 0x38007c0000802121UL,
  0x3802004300080108UL, 0x0000e100342e0000UL, 0x00000000380500c3UL, 0x000000000000e100UL,
  0x0000002400000000UL, 0x380c004200100000UL, 0x0000000700000006UL, 0x00000002380d0043UL,
  0x38110043342fc23fUL, 0x0000000000000000UL, 0x24007c0000802081UL, 0x2402012300080008UL,
  0x003c003c342fc200UL, 0x0000078000200010UL, 0x0000000200000010UL, 0x000000240001c200UL,
  0x240c004200100000UL, 0x0000000700000006UL, 0x00000002240d0043UL, 0x241100433431843fUL,
  0x0000000000000000UL, 0x0000000210007c00UL, 0x0000006410000424UL, 0x10007c0000000000UL,
  0x10007bc440000000UL, 0x0000000000000064UL, 0x0000000110007c00UL, 0x0000002910067c00UL,
  0x00000025100b0063UL, 0x0000000f0000000dUL, 0x00000005100f0123UL, 0x000000150000000fUL,
  0x0000000f00000011UL, 0x0000000700000017UL, 0x000000190000000fUL, 0x0000001b101e7c00UL,
  0x0000002510227c00UL, 0x3800200124002001UL, 0x001000353c007c00UL, 0x0010002140007c00UL,
  0x0010002144007c00UL, 0x0010002148007c00UL, 0x640020015c002001UL, 0x200020011c002001UL,
  0x300020012c002001UL, 0x24007fe434002001UL, 0x0000000000000064UL, 0x0000006438007fe4UL,
  0x10067c0000000000UL, 0x100b006300000000UL, 0x0000000000000000UL, 0x100f012300000000UL,
  0x0000000000000000UL, 0x0000000000000000UL, 0x0000000000000000UL, 0x0000000000000000UL,
  0x101e7c0000000000UL, 0x10227c0000000000UL, 0x24007c0000000000UL, 0x2400042400000002UL,
  0x0000000000000064UL, 0x4000000024007c00UL, 0x0000006424007bc4UL, 0x0080008100000000UL,
  0x0000000238007c00UL, 0x0000006438000424UL, 0x38007c0000000000UL, 0x38007bc440000000UL,
  0x0000000000000064UL, 0x3c007c0000800121UL, 0x3c00042400000002UL, 0x0000000000000064UL,
  0x400000003c007c00UL, 0x000000643c007bc4UL, 0x0080014100000000UL, 0x0000000240007c00UL,
  0x0000006440000424UL, 0x40007c0000000000UL, 0x40007bc440000000UL, 0x0000000000000064UL,
  0x44007c0000800161UL, 0x4400042400000002UL, 0x0000000000000064UL, 0x4000000044007c00UL,
  0x0000006444007bc4UL, 0x0080018100000000UL, 0x0000000248007c00UL, 0x0000006448000424UL,
  0x48007c0000000000UL, 0x48007bc440000000UL, 0x0000000000000064UL, 0x5c007c00008001a1UL,
  0x5c00042408000002UL, 0x0000000000000064UL, 0x480000005c007c00UL, 0x000000645c007bc4UL,
  0x0080024100000000UL, 0x0800000264007c00UL, 0x0000006464000424UL, 0x64007c0000000000UL,
  0x64007bc448000000UL, 0x0000000000000064UL, 0x1c007c0000800281UL, 0x1c00042400000002UL,
  0x0000000000000064UL, 0x400000001c007c00UL, 0x000000641c007bc4UL, 0x0080004100000000UL,
  0x0000000220007c00UL, 0x0000006420000424UL, 0x20007c0000000000UL, 0x20007bc440000000UL,
  0x0000000000000064UL, 0x2c007c0000800061UL, 0x2c00042400000002UL, 0x0000000000000064UL,
  0x400000002c007c00UL, 0x000000642c007bc4UL, 0x008000c100000000UL, 0x0000000230007c00UL,
  0x0000006430000424UL, 0x30007c0000000000UL, 0x30007bc440000000UL, 0x0000000000000064UL,
  0x34007c00008000e1UL, 0x3400042400000002UL, 0x0000000000000064UL, 0x4000000034007c00UL,
  0x0000006434007bc4UL, 0x0080010100000000UL, 0x008021410000031dUL, 0x10d000343c007c00UL,
  0x102001013c0200e3UL, 0x10e3440400001100UL, 0x077f0000003c0780UL, 0x00000001003b0000UL,
  0x000000003c0a7c00UL, 0x000000003c0d7c00UL, 0x6000004200802261UL, 0x156000fc08000000UL,
  0x0009800060020123UL, 0x0000000f00000000UL, 0x0001c1ff0000e0ffUL, 0x0000000000000000UL,
  0x00000001078403f1UL, 0x00000000600c0043UL, 0x600b7c0020422042UL, 0x6100080300000001UL,
  0x0000bd15fc894412UL, 0x0000ebb1fd9a249bUL, 0x0000eab2fbda3c09UL, 0x0000ed27fe3f1425UL,
  0x0000c1b3fc684101UL, 0x0000b5d5fd653383UL, 0x00006ac1fd0a3640UL, 0x000039b7f85952d6UL,
  0x0000ff8afdf55339UL, 0x0000393ffe4121c4UL, 0x0000d057fc8e4360UL, 0x0000ce3cf9686ee4UL,
  0x0000eee5fcd645a3UL, 0x0000c309fe4d1aacUL, 0x00003fcffc645a35UL, 0x00008d03fbd25f07UL,
  0x00009d16feae4b79UL, 0x0000a984fd60326dUL, 0x00009a94fba14fefUL, 0x00000649fd0a1a80UL,
  0x0000cbdcfd652b7bUL, 0x00003ce6fd8d534dUL, 0x00002a4dfcb13b2dUL, 0x00003bdff7aa4077UL,
  0x00009de0fc132568UL, 0x0000f576fbe23502UL, 0x000023a6fd2e0de2UL, 0x00003dfafbb963b3UL,
  0x0000f2e1fd132429UL, 0x00008b1af9aa7c1fUL, 0x000032f9fb752bbaUL, 0x000065c9fda62c1cUL,
  0x68000042008022a1UL, 0x1500000008000000UL, 0x0007000068027c00UL, 0x0000400068070043UL,
  0x680c004300000020UL, 0x1041104100000000UL, 0x24007c0000802081UL, 0x2402004308880300UL,
  0x00009600342fc200UL, 0x00000000240500c3UL, 0x0000000200000000UL, 0x000000240001c200UL,
  0x240c004200100000UL, 0x0000000700000006UL, 0x00000002240d0043UL, 0x241100433431843fUL,
  0x0000000000000000UL, 0x2c007c00008020c1UL, 0x2c02004308880184UL, 0x000001567049ccd0UL,
  0x000000002c0500c3UL, 0x0000000000000000UL, 0x0000002400000000UL, 0x2c0c004200100000UL,
  0x0000000700000006UL, 0x000000012c0d0043UL, 0x2c1100437049d117UL, 0x0000000800000000UL,
  0x38007c0000802121UL, 0x3802012300080008UL, 0x003c003c34318400UL, 0x0000078000200010UL,
  0x0000000200000010UL, 0x000000240001c200UL, 0x380c004200100000UL, 0x0000000700000006UL,
  0x00000002380d0043UL, 0x381100433433463fUL, 0x0000000000000000UL, 0x0000000210007c00UL,
  0x0000006410000424UL, 0x10007c0000000000UL, 0x10007bc440000000UL, 0x0000000000000064UL,
  0x0000000110007c00UL, 0x0000002b100b0063UL, 0x0000000d00000009UL, 0x0000001510207c00UL,
  0x0000002710247c00UL, 0x3c007c0038002001UL, 0x6000200110d00035UL, 0x2400200168002001UL,
  0x38007fe42c002001UL, 0x0000000000000064UL, 0x00000000100b0063UL, 0x0000000000000000UL,
  0x0000000010207c00UL, 0x0000000010247c00UL, 0x0000000238007c00UL, 0x0000006438000424UL,
  0x38007c0000000000UL, 0x38007bc440000000UL, 0x0000000000000064UL, 0x3c007c0000800121UL,
  0x3c00042400000002UL, 0x0000000000000064UL, 0x400000003c007c00UL, 0x000000643c007bc4UL,
  0x0080014100000000UL, 0x0800000260007c00UL, 0x0000006460000424UL, 0x60007c0000000000UL,
  0x60007bc448000000UL, 0x0000000000000064UL, 0x68007c0000800261UL, 0x6800042408000002UL,
  0x0000000000000064UL, 0x4800000068007c00UL, 0x0000006468007bc4UL, 0x008002a100000000UL,
  0x0000000224007c00UL, 0x0000006424000424UL, 0x24007c0000000000UL, 0x24007bc440000000UL,
  0x0000000000000064UL, 0x2c007c0000800081UL, 0x2c00042400000002UL, 0x0000000000000064UL,
  0x400000002c007c00UL, 0x000000642c007bc4UL, 0x008000c100000000UL, 0x008021610000033dUL,
  0x0010003440007c00UL, 0x04040303400200e3UL, 0x1063430300001155UL, 0x00ef0000003c00f0UL,
  0x00000001003b0000UL, 0x00000000400a7c00UL, 0x00000000400d7c00UL, 0x5c00004200802241UL,
  0x156000fc08000000UL, 0x000800005c020123UL, 0x0000000300000000UL, 0x0001c1ff0000383fUL,
  0x0000000000000000UL, 0x00000001078403fdUL, 0x000000005c0c0043UL, 0x5c0b7c0020422042UL,
  0x5d00080300000001UL, 0x000009fcff7d27e5UL, 0x00008921ff923e07UL, 0x00007a0dffba0d1fUL,
  0x00007e7b003f26d8UL, 0x0000f80dff862adcUL, 0x00002703ff6a5219UL, 0x0000cee9ff732344UL,
  0x0000f315ff7c0aaeUL, 0x00008a9fff7f1113UL, 0x00007cf0ff70342aUL, 0x00001134ff792590UL,
  0x000046f8ff8e09b4UL, 0x00008012ff6c2978UL, 0x000082f4ff63208aUL, 0x0000579effc50439UL,
  0x0000d5d3ff701cc9UL, 0x0000f992ff86156bUL, 0x00008b79ff6d43bcUL, 0x00009bf2ff7e31f9UL,
  0x0000154dff805537UL, 0x00001859ff913689UL, 0x0000b061ff6218d9UL, 0x0000b119ff771508UL,
  0x00009ba8ff5e0700UL, 0x0000203effa41bbeUL, 0x0000c3efff861c91UL, 0x0000a1e9ff8031d2UL,
  0x0000a6f0ff853597UL, 0x0000a4bdff8f3418UL, 0x0000583cff7a0decUL, 0x0000fc70ff7f1c7bUL,
  0x000052dcff921b4bUL, 0x6400004200802281UL, 0x1500000008000000UL, 0x0007000064027c00UL,
  0x0000400064070043UL, 0x640c004300000020UL, 0x1041104100000000UL, 0x28007c00008020a1UL,
  0x2802012300080000UL, 0x003c003c34318400UL, 0x0000078000200004UL, 0x0000000100000000UL,
  0x0000002400000004UL, 0x280c004200100000UL, 0x0000000700000006UL, 0x00000008280d0043UL,
  0x281100433433463fUL, 0x0000000000000000UL, 0x14007c0000802001UL, 0x1402004300080184UL,
  0x00000480704980c0UL, 0x00000000140500c3UL, 0x0000000000000000UL, 0x0000002400000000UL,
  0x140c004200100000UL, 0x0000000700000006UL, 0x00000001140d0043UL, 0x141100437049857fUL,
  0x0000000800000000UL, 0x18007c0000802021UL, 0x1802012300080008UL, 0x003c003c34270000UL,
  0x0000078000200004UL, 0x0000000800000004UL, 0x000000240001c200UL, 0x180c004200100000UL,
  0x0000000700000006UL, 0x00000008180d0043UL, 0x181100433428c23fUL, 0x0000000000000000UL,
  0x0000000210007c00UL, 0x0000006410000424UL, 0x10007c0000000000UL, 0x10007bc440000000UL,
  0x0000000000000064UL, 0x0000000110007c00UL, 0x0000002910037c00UL, 0x0000000b100f0043UL,
  0x101e7c0000000001UL, 0x10227c0000000017UL, 0x1800200100000025UL, 0x0010003540007c00UL,
  0x640020015c002001UL, 0x2800200114002001UL, 0x0000006418007fe4UL, 0x10037c0000000000UL,
  0x100f004300000000UL, 0x0000000000000000UL, 0x00000000101e7c00UL, 0x0000000010227c00UL,
  0x0000000218007c00UL, 0x0000006418000424UL, 0x18007c0000000000UL, 0x18007bc440000000UL,
  0x0000000000000064UL, 0x40007c0000800021UL, 0x4000042400000002UL, 0x0000000000000064UL,
  0x4000000040007c00UL, 0x0000006440007bc4UL, 0x0080016100000000UL, 0x080000025c007c00UL,
  0x000000645c000424UL, 0x5c007c0000000000UL, 0x5c007bc448000000UL, 0x0000000000000064UL,
  0x64007c0000800241UL, 0x6400042408000002UL, 0x0000000000000064UL, 0x4800000064007c00UL,
  0x0000006464007bc4UL, 0x0080028100000000UL, 0x0000000214007c00UL, 0x0000006414000424UL,
  0x14007c0000000000UL, 0x14007bc440000000UL, 0x0000000000000064UL, 0x28007c0000800001UL,
  0x2800042400000002UL, 0x0000000000000064UL, 0x4000000028007c00UL, 0x0000006428007bc4UL,
  0x008000a100000000UL, 0x008021810000035dUL, 0x10d0003444007c00UL, 0x10200101440200e3UL,
  0x10e3430300001100UL, 0x077f0000003c0780UL, 0x00000001003b0000UL, 0x00000000440a7c00UL,
  0x00000000440d7c00UL, 0x6000004200802261UL, 0x156000fc08000000UL, 0x0009800060020123UL,
  0x0000000f00000000UL, 0x0001c1ff0000e0ffUL, 0x0000000000000000UL, 0x00000001078403f1UL,
  0x00000000600c0043UL, 0x600b7c0020422042UL, 0x6100080300000001UL, 0x000022ad00b95a80UL,
  0x0000cc74fc0e2b6cUL, 0x0000c4b8fc803897UL, 0x00000c19fb6518f6UL, 0x000016eefc5b46efUL,
  0x0000d990fc7c2a0aUL, 0x00001b45fd2b33b7UL, 0x000063a8fbb828d4UL, 0x00008827fce72aa9UL,
  0x000094d8fc1b2a07UL, 0x0000770bfcf21cd9UL, 0x0000a1dcfcf9109fUL, 0x00006231fd9c1ee6UL,
  0x00006b68fe262ad1UL, 0x00004bdafc612305UL, 0x0000b7a0fc842f89UL, 0x0000723afbc12adcUL,
  0x00000cb3fca32563UL, 0x0000f2bbfe012b9dUL, 0x0000cbd2fbd728beUL, 0x0000136cfd0d349eUL,
  0x00005765fd45233eUL, 0x00006c3ffd091c22UL, 0x0000a8f2fccc1df1UL, 0x0000bcd5fcc82252UL,
  0x00003abdfe002653UL, 0x0000ccbefcec2e02UL, 0x0000e53bfd552f1bUL, 0x0000c212fea733edUL,
  0x000092e9fcde1318UL, 0x0000dc35fc831375UL, 0x00007772fd541e89UL, 0x68000042008022a1UL,
  0x0500016008000000UL, 0x0007900068027c00UL, 0x4c3f44c468070043UL, 0x680c0043000044c4UL,
  0x1041104100000000UL, 0x5c00004200802241UL, 0x1500000008000000UL, 0x000700005c027c00UL,
  0x000040005c070043UL, 0x5c0c004300000020UL, 0x1041104100000000UL, 0x1c007c0000802041UL,
  0x1c02004308880300UL, 0x0000960034270000UL, 0x000000001c0500c3UL, 0x0000000200000000UL,
  0x000000240001c200UL, 0x1c0c004200100000UL, 0x0000000700000006UL, 0x000000021c0d0043UL,
  0x1c1100433428c23fUL, 0x0000000000000000UL, 0x28007c00008020a1UL, 0x2802004308880184UL,
  0x000001567049d0e0UL, 0x00000000280500c3UL, 0x0000000000000000UL, 0x0000002400000000UL,
  0x280c004200100000UL, 0x0000000700000006UL, 0x00000001280d0043UL, 0x281100437049d527UL,
  0x0000000800000000UL, 0x38007c0000802121UL, 0x3802004300080100UL, 0x0000e100342e0000UL,
  0x00000000380500c3UL, 0x000000000000e100UL, 0x0000002400000000UL, 0x380c004200100000UL,
  0x0000000700000006UL, 0x00000002380d0043UL, 0x38110043342fc23fUL, 0x0000000000000000UL,
  0x24007c0000802081UL, 0x2402004300080108UL, 0x0000e100342fc200UL, 0x00000000240500c3UL,
  0x000000000000e100UL, 0x0000002400000000UL, 0x240c004200100000UL, 0x0000000700000006UL,
  0x00000002240d0043UL, 0x241100433431843fUL, 0x0000000000000000UL, 0x34007c0000802101UL,
  0x3402012300080008UL, 0x003c003c34318400UL, 0x0000078000200010UL, 0x0000000200000010UL,
  0x000000240001c200UL, 0x340c004200100000UL, 0x0000000700000006UL, 0x00000002340d0043UL,
  0x341100433433463fUL, 0x0000000000000000UL, 0x0000000210007c00UL, 0x0000006410000424UL,
  0x10007c0000000000UL, 0x10007bc440000000UL, 0x0000000000000064UL, 0x0000000110007c00UL,
  0x0000002b10067c00UL, 0x00000025100a7c00UL, 0x0000000510120043UL, 0x101e7c000000000bUL,
  0x10207c000000002bUL, 0x1024004300000019UL, 0x0000002700000013UL, 0x3400200124002001UL,
  0x10d0003544007c00UL, 0x600020015c002001UL, 0x1c00200168002001UL, 0x3800200128002001UL,
  0x0000006424007fe4UL, 0x34007fe400000000UL, 0x0000000000000064UL, 0x0000000010067c00UL,
  0x00000000100a7c00UL, 0x0000000010120043UL, 0x101e7c0000000000UL, 0x10207c0000000000UL,
  0x1024004300000000UL, 0x0000000000000000UL, 0x0000000224007c00UL, 0x0000006424000424UL,
  0x24007c0000000000UL, 0x24007bc440000000UL, 0x0000000000000064UL, 0x34007c0000800081UL,
  0x3400042400000002UL, 0x0000000000000064UL, 0x4000000034007c00UL, 0x0000006434007bc4UL,
  0x0080010100000000UL, 0x0000000244007c00UL, 0x0000006444000424UL, 0x44007c0000000000UL,
  0x44007bc440000000UL, 0x0000000000000064UL, 0x5c007c0000800181UL, 0x5c00042408000002UL,
  0x0000000000000064UL, 0x480000005c007c00UL, 0x000000645c007bc4UL, 0x0080024100000000UL,
  0x0800000260007c00UL, 0x0000006460000424UL, 0x60007c0000000000UL, 0x60007bc448000000UL,
  0x0000000000000064UL, 0x68007c0000800261UL, 0x6800042408000002UL, 0x0000000000000064UL,
  0x4800000068007c00UL, 0x0000006468007bc4UL, 0x008002a100000000UL, 0x000000021c007c00UL,
  0x000000641c000424UL, 0x1c007c0000000000UL, 0x1c007bc440000000UL, 0x0000000000000064UL,
  0x28007c0000800041UL, 0x2800042400000002UL, 0x0000000000000064UL, 0x4000000028007c00UL,
  0x0000006428007bc4UL, 0x008000a100000000UL, 0x0000000238007c00UL, 0x0000006438000424UL,
  0x38007c0000000000UL, 0x38007bc440000000UL, 0x0000000000000064UL, 0x0000037d00800121UL,
  0x48007c00008021a1UL, 0x480200e310d00034UL, 0x0000110010200101UL, 0x003c078010e34303UL,
  0x003b0000077f0000UL, 0x480a7c0000000001UL, 0x480d7c0000000000UL, 0x0080228100000000UL,
  0x0800000064000042UL, 0x64020123156000fcUL, 0x0000000000090000UL, 0x0000e0ff0000000fUL,
  0x000000000001c1ffUL, 0x078403f100000000UL, 0x640c004300000001UL, 0x2042204200000000UL,
  0x00000001640b7c00UL, 0xff950ec265000803UL, 0xfe4559e400006ec7UL, 0xfed70c6100007b36UL,
  0xffb723a200004d27UL, 0xfd6d10920000f6b4UL, 0xfe21363d00009a33UL, 0xfd5c3e54000050afUL,
  0xfe8e0ae80000eed0UL, 0xfdb50d6c000083c2UL, 0xfd900e2d0000c3a7UL, 0xfeb10dba00003fd4UL,
  0xfd2f1bef0000ddf5UL, 0xfe6410d2000095c5UL, 0xfed418bf0000e595UL, 0xff370bea0000be72UL,
  0xfcf72ef400006c4aUL, 0xfea72b4600004da5UL, 0xffbb19910000c8baUL, 0xff02283d00000c70UL,
  0xfd8317780000d5e9UL, 0xffa52ac3000030a9UL, 0xfe2813010000c111UL, 0xfe4a0abc00000b44UL,
  0x014e55d900006a3cUL, 0xfe1e112400009715UL, 0xfdbf143300002638UL, 0xfe3524ec0000a8c0UL,
  0xff6a1bc50000d5c1UL, 0xfdd426920000afebUL, 0xfef61ea60000b3a5UL, 0xfecf32e30000bdf3UL,
  0xff160c130000be01UL, 0x008022410000374eUL, 0x080000005c000042UL, 0x5c027c0015000000UL,
  0x5c07004300070000UL, 0x0000002000004000UL, 0x000000005c0c0043UL, 0x0080206110411041UL,
  0x0888030020007c00UL, 0x3431840020020043UL, 0x200500c300009600UL, 0x0000000000000000UL,
  0x0001c20000000002UL, 0x0010000000000024UL, 0x00000006200c0042UL, 0x200d004300000007UL,
  0x3433463f00000002UL, 0x0000000020110043UL, 0x008020e100000000UL, 0x0888018430007c00UL,
  0x7049d4f030020043UL, 0x300500c300000156UL, 0x0000000000000000UL, 0x0000000000000000UL,
  0x0010000000000024UL, 0x00000006300c0042UL, 0x300d004300000007UL, 0x7049d93700000001UL,
  0x0000000030110043UL, 0x008020a100000008UL, 0x0008000828007c00UL, 0x342e000028020123UL,
  0x00200010003c003cUL, 0x0000001000000780UL, 0x0001c20000000002UL, 0x0010000000000024UL,
  0x00000006280c0042UL, 0x280d004300000007UL, 0x342fc23f00000002UL, 0x0000000028110043UL,
  0x10007c0000000000UL, 0x1000042400000002UL, 0x0000000000000064UL, 0x4000000010007c00UL,
  0x0000006410007bc4UL, 0x10007c0000000000UL, 0x10077c0000000001UL, 0x1015004300000025UL,
  0x0000000f00000007UL, 0x00000029101e7c00UL, 0x0000001b10227c00UL, 0x48007c0028002001UL,
  0x5c00200110d00035UL, 0x2000200164002001UL, 0x28007fe430002001UL, 0x0000000000000064UL,
  0x0000000010077c00UL, 0x0000000010150043UL, 0x101e7c0000000000UL, 0x10227c0000000000UL,
  0x28007c0000000000UL, 0x2800042400000002UL, 0x0000000000000064UL, 0x4000000028007c00UL,
  0x0000006428007bc4UL, 0x008000a100000000UL, 0x0000000248007c00UL, 0x0000006448000424UL,
  0x48007c0000000000UL, 0x48007bc440000000UL, 0x0000000000000064UL, 0x5c007c00008001a1UL,
  0x5c00042408000002UL, 0x0000000000000064UL, 0x480000005c007c00UL, 0x000000645c007bc4UL,
  0x0080024100000000UL, 0x0800000264007c00UL, 0x0000006464000424UL, 0x64007c0000000000UL,
  0x64007bc448000000UL, 0x0000000000000064UL, 0x20007c0000800281UL, 0x2000042400000002UL,
  0x0000000000000064UL, 0x4000000020007c00UL, 0x0000006420007bc4UL, 0x0080006100000000UL,
  0x0000000230007c00UL, 0x0000006430000424UL, 0x30007c0000000000UL, 0x30007bc440000000UL,
  0x0000000000000064UL, 0x0000039d008000e1UL, 0x3c007c0000802141UL, 0x3c0200e300100034UL,
  0x0000115504040303UL, 0x003c00f010634303UL, 0x003b000000ef0000UL, 0x3c0a7c0000000001UL,
  0x3c0d7c0000000000UL, 0x0080226100000000UL, 0x0800000060000042UL, 0x60020123156000fcUL,
  0x0000000000078000UL, 0x0000383f00000003UL, 0x000000000001c1ffUL, 0x078403fd00000000UL,
  0x600c004300000001UL, 0x2042204200000000UL, 0x00000001600b7c00UL, 0xffbd146861000803UL,
  0xffb6031c0000055cUL, 0xffce10f60000b84dUL, 0xffc1085500000529UL, 0xffb2676200009516UL,
  0xffbf07b900001e26UL, 0xffb804220000fd1aUL, 0x005c147b0000349cUL, 0xffd6150f0000fbbfUL,
  0xffbc18b5000067d1UL, 0xffd40f3f0000bb0eUL, 0xffd1058c00000adeUL, 0xfff90aa20000d2d9UL,
  0xffd30b3e0000211fUL, 0xffd21aaa00009c67UL, 0xffba049f00009b06UL, 0xffce02c00000f275UL,
  0xffbe0b150000b570UL, 0xffb61bbc0000cf41UL, 0xffbb0fa300002e98UL, 0xffa80a0e0000e281UL,
  0xffb80ff6000065b5UL, 0xffbd19f400000af2UL, 0xffbe09430000f275UL, 0xffb50c740000231dUL,
  0xffb006e20000d4fbUL, 0xffd50b7e0000bd5bUL, 0xffcc083700006094UL, 0xffc410e10000cc41UL,
  0xffcc0c650000383dUL, 0xffad08a70000fb9aUL, 0xffc413ba000005e8UL, 0x008022a10000e496UL,
  0x0800000068000042UL, 0x68027c0015000000UL, 0x6807004300070000UL, 0x0000002000004000UL,
  0x00000000680c0043UL, 0x008020a110411041UL, 0x0008000028007c00UL, 0x342e000028020123UL,
  0x00200004003c003cUL, 0x0000000000000780UL, 0x0000000400000001UL, 0x0010000000000024UL,
  0x00000006280c0042UL, 0x280d004300000007UL, 0x342fc23f00000008UL, 0x0000000028110043UL,
  0x0080210100000000UL, 0x0008018434007c00UL, 0x7049854034020043UL, 0x340500c300000480UL,
  0x0000000000000000UL, 0x0000000000000000UL, 0x0010000000000024UL, 0x00000006340c0042UL,
  0x340d004300000007UL, 0x704989ff00000001UL, 0x0000000034110043UL, 0x0080200100000008UL,
  0x0008000814007c00UL, 0x3427000014020123UL, 0x00200004003c003cUL, 0x0000000400000780UL,
  0x0001c20000000008UL, 0x0010000000000024UL, 0x00000006140c0042UL, 0x140d004300000007UL,
  0x3428c23f00000008UL, 0x0000000014110043UL, 0x10007c0000000000UL, 0x1000042400000002UL,
  0x0000000000000064UL, 0x4000000010007c00UL, 0x0000006410007bc4UL, 0x10007c0000000000UL,
  0x10027c0000000001UL, 0x100c00430000002bUL, 0x000000110000000bUL, 0x0000001510207c00UL,
  0x0000002710247c00UL, 0x3c007c0014002001UL, 0x6000200100100035UL, 0x2800200168002001UL,
  0x14007fe434002001UL, 0x0000000000000064UL, 0x0000000010027c00UL, 0x00000000100c0043UL,
  0x10207c0000000000UL, 0x10247c0000000000UL, 0x14007c0000000000UL, 0x1400042400000002UL,
  0x0000000000000064UL, 0x4000000014007c00UL, 0x0000006414007bc4UL, 0x0080000100000000UL,
  0x000000023c007c00UL, 0x000000643c000424UL, 0x3c007c0000000000UL, 0x3c007bc440000000UL,
  0x0000000000000064UL, 0x60007c0000800141UL, 0x6000042408000002UL, 0x0000000000000064UL,
  0x4800000060007c00UL, 0x0000006460007bc4UL, 0x0080026100000000UL, 0x0800000268007c00UL,
  0x0000006468000424UL, 0x68007c0000000000UL, 0x68007bc448000000UL, 0x0000000000000064UL,
  0x28007c00008002a1UL, 0x2800042400000002UL, 0x0000000000000064UL, 0x4000000028007c00UL,
  0x0000006428007bc4UL, 0x008000a100000000UL, 0x0000000234007c00UL, 0x0000006434000424UL,
  0x34007c0000000000UL, 0x34007bc440000000UL, 0x0000000000000064UL, 0x000003bd00800101UL,
  0x40007c0000802161UL, 0x400200e310d00034UL, 0x0000110010200101UL, 0x003c078010e34303UL,
  0x003b0000077f0000UL, 0x400a7c0000000001UL, 0x400d7c0000000000UL, 0x0080224100000000UL,
  0x080000005c000042UL, 0x5c020123156000fcUL, 0x0000000000098000UL, 0x0000e0ff0000000fUL,
  0x000000000001c1ffUL, 0x078403f100000000UL, 0x5c0c004300000001UL, 0x2042204200000000UL,
  0x000000015c0b7c00UL, 0xfb60368e5d000803UL, 0xfc1f1ad400007173UL, 0xfaef36e600007afaUL,
  0xfd132b850000f1abUL, 0xfd7c266900007b87UL, 0xfd0f342900005150UL, 0xfe0119dc00003c1fUL,
  0xfc9a1e3900006ea2UL, 0xfb8a33a0000081f8UL, 0xfb6e2d280000e8faUL, 0xfb32222500004dc7UL,
  0xfb411ad80000e8b6UL, 0xfd011dbb000051ecUL, 0xfa92206400007a78UL, 0xfc41299000007ed8UL,
  0xfc922b4e0000e0aeUL, 0xfb23254800001289UL, 0xfce42f100000245dUL, 0xfcf13a050000a3c7UL,
  0xfd043b65000023d9UL, 0xfd5139530000ec19UL, 0xfc401f64000031dbUL, 0xfccd1376000040d1UL,
  0xfcc922bf0000d6c5UL, 0xfc891ed100008b3bUL, 0xfca82a600000ab17UL, 0xfcc82d0300000de9UL,
  0xfcde423c000033e9UL, 0xfcde2c20000061e2UL, 0xfce12dbf0000cd83UL, 0xfd9424930000e06fUL,
  0xfae8536400009665UL, 0x0080228100001ab1UL, 0x0800000064000042UL, 0x64027c0005000160UL,
  0x6407004300079820UL, 0x000072f148e36af9UL, 0x00000000640c0043UL, 0x0080226110411041UL,
  0x0800000060000042UL, 0x60027c0015000000UL, 0x6007004300070000UL, 0x0000002000004000UL,
  0x00000000600c0043UL, 0x008020e110411041UL, 0x0888030030007c00UL, 0x3427000030020043UL,
  0x300500c300009600UL, 0x0000000000000000UL, 0x0001c20000000002UL, 0x0010000000000024UL,
  0x00000006300c0042UL, 0x300d004300000007UL, 0x3428c23f00000002UL, 0x0000000030110043UL,
  0x0080204100000000UL, 0x088801841c007c00UL, 0x7049d9001c020043UL, 0x1c0500c300000156UL,
  0x0000000000000000UL, 0x0000000000000000UL, 0x0010000000000024UL, 0x000000061c0c0042UL,
  0x1c0d004300000007UL, 0x7049dd4700000001UL, 0x000000001c110043UL, 0x008020c100000008UL,
  0x000801002c007c00UL, 0x342fc2002c020043UL, 0x2c0500c30000e100UL, 0x0000e10000000000UL,
  0x0000000000000000UL, 0x0010000000000024UL, 0x000000062c0c0042UL, 0x2c0d004300000007UL,
  0x3431843f00000002UL, 0x000000002c110043UL, 0x0080200100000000UL, 0x0008010814007c00UL,
  0x342e000014020043UL, 0x140500c30000e100UL, 0x0000e10000000000UL, 0x0000000000000000UL,
  0x0010000000000024UL, 0x00000006140c0042UL, 0x140d004300000007UL, 0x342fc23f00000002UL,
  0x0000000014110043UL, 0x0080206100000000UL, 0x0008000820007c00UL, 0x3431840020020123UL,
  0x00200010003c003cUL, 0x0000001000000780UL, 0x0001c20000000002UL, 0x0010000000000024UL,
  0x00000006200c0042UL, 0x200d004300000007UL, 0x3433463f00000002UL, 0x0000000020110043UL,
  0x10007c0000000000UL, 0x1000042400000002UL, 0x0000000000000064UL, 0x4000000010007c00UL,
  0x0000006410007bc4UL, 0x10007c0000000000UL, 0x10027c0000000001UL, 0x10057c0000000029UL,
  0x100f004300000027UL, 0x000000050000000fUL, 0x00000017101e7c00UL, 0x0000002910207c00UL,
  0x0000000d10220043UL, 0x1400200100000025UL, 0x40007c0020002001UL, 0x5c00200110d00035UL,
  0x6400200160002001UL, 0x2c0020011c002001UL, 0x14007fe430002001UL, 0x0000000000000064UL,
  0x0000006420007fe4UL, 0x10027c0000000000UL, 0x10057c0000000000UL, 0x100f004300000000UL,
  0x0000000000000000UL, 0x00000000101e7c00UL, 0x0000000010207c00UL, 0x0000000010220043UL,
  0x14007c0000000000UL, 0x1400042400000002UL, 0x0000000000000064UL, 0x4000000014007c00UL,
  0x0000006414007bc4UL, 0x0080000100000000UL, 0x0000000220007c00UL, 0x0000006420000424UL,
  0x20007c0000000000UL, 0x20007bc440000000UL, 0x0000000000000064UL, 0x40007c0000800061UL,
  0x4000042400000002UL, 0x0000000000000064UL, 0x4000000040007c00UL, 0x0000006440007bc4UL,
  0x0080016100000000UL, 0x080000025c007c00UL, 0x000000645c000424UL, 0x5c007c0000000000UL,
  0x5c007bc448000000UL, 0x0000000000000064UL, 0x60007c0000800241UL, 0x6000042408000002UL,
  0x0000000000000064UL, 0x4800000060007c00UL, 0x0000006460007bc4UL, 0x0080026100000000UL,
  0x0800000264007c00UL, 0x0000006464000424UL, 0x64007c0000000000UL, 0x64007bc448000000UL,
  0x0000000000000064UL, 0x1c007c0000800281UL, 0x1c00042400000002UL, 0x0000000000000064UL,
  0x400000001c007c00UL, 0x000000641c007bc4UL, 0x0080004100000000UL, 0x000000022c007c00UL,
  0x000000642c000424UL, 0x2c007c0000000000UL, 0x2c007bc440000000UL, 0x0000000000000064UL,
  0x30007c00008000c1UL, 0x3000042400000002UL, 0x0000000000000064UL, 0x4000000030007c00UL,
  0x0000006430007bc4UL, 0x008000e100000000UL, 0x00802181000003ddUL, 0x10d0003444007c00UL,
  0x10200101440200e3UL, 0x10e3430300001100UL, 0x077f0000003c0780UL, 0x00000001003b0000UL,
  0x00000000440a7c00UL, 0x00000000440d7c00UL, 0x68000042008022a1UL, 0x156000fc08000000UL,
  0x0009000068020123UL, 0x0000000f00000000UL, 0x0001c1ff0000e0ffUL, 0x0000000000000000UL,
  0x00000001078403f1UL, 0x00000000680c0043UL, 0x680b7c0020422042UL, 0x6900080300000001UL,
  0x0000a6e2fc534d2fUL, 0x000021c6fdb623a1UL, 0x0000ce73fdd71329UL, 0x0000998c01b42210UL,
  0x00002f87fbf12692UL, 0x0000e466fda9173aUL, 0x000076c6ff4e132cUL, 0x00006a4ffeef1ca7UL,
  0x0000aba2ff081a46UL, 0x00003ea3fe5311fbUL, 0x0000e4ebfeb2228eUL, 0x00006c15fe5e1978UL,
  0x00000cddff6e2ed0UL, 0x00008d1f005824b9UL, 0x00003296fde735c0UL, 0x00000795ffb1198fUL,
  0x0000ce0afdf72027UL, 0x00000065fe4222a9UL, 0x00005edcff431bd3UL, 0x00001b52003f2d2eUL,
  0x0000f9c4fe4015a2UL, 0x00007f9afeb71080UL, 0x00006ae7fe610cb4UL, 0x0000b732fe6d2f60UL,
  0x0000fa38fdc02da8UL, 0x0000bcb0fcc64807UL, 0x0000b80ffcd51988UL, 0x00003e6afe090ddcUL,
  0x0000cbbcfddb177bUL, 0x0000fab0fd950d8cUL, 0x00001b2bfcdc1747UL, 0x00000a1cfdfc26ffUL,
  0x5c00004200802241UL, 0x1500000008000000UL, 0x000700005c027c00UL, 0x000040005c070043UL,
  0x5c0c004300000020UL, 0x1041104100000000UL, 0x20007c0000802061UL, 0x2002004308880300UL,
  0x0000960034318400UL, 0x00000000200500c3UL, 0x0000000200000000UL, 0x000000240001c200UL,
  0x200c004200100000UL, 0x0000000700000006UL, 0x00000002200d0043UL, 0x201100433433463fUL,
  0x0000000000000000UL, 0x30007c00008020e1UL, 0x3002004308880184UL, 0x000001567049dd10UL,
  0x00000000300500c3UL, 0x0000000000000000UL, 0x0000002400000000UL, 0x300c004200100000UL,
  0x0000000700000006UL, 0x00000001300d0043UL, 0x301100437049e157UL, 0x0000000800000000UL,
  0x34007c0000802101UL, 0x3402012300080008UL, 0x003c003c342fc200UL, 0x0000078000200010UL,
  0x0000000200000010UL, 0x000000240001c200UL, 0x340c004200100000UL, 0x0000000700000006UL,
  0x00000002340d0043UL, 0x341100433431843fUL, 0x0000000000000000UL, 0x0000000210007c00UL,
  0x0000006410000424UL, 0x10007c0000000000UL, 0x10007bc440000000UL, 0x0000000000000064UL,
  0x0000000110007c00UL, 0x00000025100a7c00UL, 0x0000000710120043UL, 0x101e7c000000000fUL,
  0x10247c000000002bUL, 0x3400200100000019UL, 0x10d0003544007c00UL, 0x680020015c002001UL,
  0x3000200120002001UL, 0x0000006434007fe4UL, 0x100a7c0000000000UL, 0x1012004300000000UL,
  0x0000000000000000UL, 0x00000000101e7c00UL, 0x0000000010247c00UL, 0x0000000234007c00UL,
  0x0000006434000424UL, 0x34007c0000000000UL, 0x34007bc440000000UL, 0x0000000000000064UL,
  0x44007c0000800101UL, 0x4400042400000002UL, 0x0000000000000064UL, 0x4000000044007c00UL,
  0x0000006444007bc4UL, 0x0080018100000000UL, 0x080000025c007c00UL, 0x000000645c000424UL,
  0x5c007c0000000000UL, 0x5c007bc448000000UL, 0x0000000000000064UL, 0x68007c0000800241UL,
  0x6800042408000002UL, 0x0000000000000064UL, 0x4800000068007c00UL, 0x0000006468007bc4UL,
  0x008002a100000000UL, 0x0000000220007c00UL, 0x0000006420000424UL, 0x20007c0000000000UL,
  0x20007bc440000000UL, 0x0000000000000064UL, 0x30007c0000800061UL, 0x3000042400000002UL,
  0x0000000000000064UL, 0x4000000030007c00UL, 0x0000006430007bc4UL, 0x008000e100000000UL,
  0x008021a1000003fdUL, 0x0010003448007c00UL, 0x04040303480200e3UL, 0x1063420200001155UL,
  0x00ef0000003c00f0UL, 0x00000001003b0000UL, 0x00000000480a7c00UL, 0x00000000480d7c00UL,
  0x6000004200802261UL, 0x156000fc08000000UL, 0x0008800060020123UL, 0x0000000300000000UL,
